{
  "version": "1.0",
  "truncation": null,
  "padding": null,
  "added_tokens": [
    {
      "id": 0,
      "content": "<UNK>",
      "single_word": false,
      "lstrip": false,
      "rstrip": false,
      "normalized": false,
      "special": true
    },
    {
      "id": 1,
      "content": "PAD",
      "single_word": false,
      "lstrip": false,
      "rstrip": false,
      "normalized": false,
      "special": true
    },
    {
      "id": 2,
      "content": "EOS",
      "single_word": false,
      "lstrip": false,
      "rstrip": false,
      "normalized": false,
      "special": true
    },
    {
      "id": 3,
      "content": "BOS",
      "single_word": false,
      "lstrip": false,
      "rstrip": false,
      "normalized": false,
      "special": true
    }
  ],
  "normalizer": null,
  "pre_tokenizer": {
    "type": "Whitespace"
  },
  "post_processor": null,
  "decoder": null,
  "model": {
    "type": "BPE",
    "dropout": null,
    "unk_token": "<UNK>",
    "continuing_subword_prefix": null,
    "end_of_word_suffix": null,
    "fuse_unk": false,
    "byte_fallback": false,
    "ignore_merges": false,
    "vocab": {
      "<UNK>": 0,
      "PAD": 1,
      "EOS": 2,
      "BOS": 3,
      "!": 4,
      "\"": 5,
      "$": 6,
      "%": 7,
      "&": 8,
      "'": 9,
      "(": 10,
      ")": 11,
      "+": 12,
      ",": 13,
      "-": 14,
      ".": 15,
      "/": 16,
      "0": 17,
      "1": 18,
      "2": 19,
      "3": 20,
      "4": 21,
      "5": 22,
      "6": 23,
      "7": 24,
      "8": 25,
      "9": 26,
      ":": 27,
      ";": 28,
      "=": 29,
      ">": 30,
      "?": 31,
      "A": 32,
      "B": 33,
      "C": 34,
      "D": 35,
      "E": 36,
      "F": 37,
      "G": 38,
      "H": 39,
      "I": 40,
      "J": 41,
      "K": 42,
      "L": 43,
      "M": 44,
      "N": 45,
      "O": 46,
      "P": 47,
      "Q": 48,
      "R": 49,
      "S": 50,
      "T": 51,
      "U": 52,
      "V": 53,
      "W": 54,
      "X": 55,
      "Y": 56,
      "Z": 57,
      "\\": 58,
      "_": 59,
      "a": 60,
      "b": 61,
      "c": 62,
      "d": 63,
      "e": 64,
      "f": 65,
      "g": 66,
      "h": 67,
      "i": 68,
      "j": 69,
      "k": 70,
      "l": 71,
      "m": 72,
      "n": 73,
      "o": 74,
      "p": 75,
      "q": 76,
      "r": 77,
      "s": 78,
      "t": 79,
      "u": 80,
      "v": 81,
      "w": 82,
      "x": 83,
      "y": 84,
      "z": 85,
      "{": 86,
      "|": 87,
      "}": 88,
      "~": 89,
      "°": 90,
      "·": 91,
      "á": 92,
      "ï": 93,
      "ó": 94,
      "ü": 95,
      "Č": 96,
      "ń": 97,
      "‑": 98,
      "–": 99,
      "—": 100,
      "ℓ": 101,
      "ℵ": 102,
      "⇒": 103,
      "in": 104,
      "th": 105,
      "er": 106,
      "at": 107,
      "on": 108,
      "an": 109,
      "re": 110,
      "en": 111,
      "al": 112,
      "or": 113,
      "ed": 114,
      "the": 115,
      "ar": 116,
      "ing": 117,
      "es": 118,
      "ti": 119,
      "is": 120,
      "le": 121,
      "as": 122,
      "of": 123,
      "ic": 124,
      "to": 125,
      "and": 126,
      "ro": 127,
      "ch": 128,
      "de": 129,
      "ion": 130,
      "co": 131,
      "us": 132,
      "ve": 133,
      "it": 134,
      "ation": 135,
      "ent": 136,
      "pro": 137,
      "st": 138,
      "ly": 139,
      "mp": 140,
      "be": 141,
      "ma": 142,
      "ut": 143,
      "ra": 144,
      "ne": 145,
      "se": 146,
      "tion": 147,
      "for": 148,
      "ce": 149,
      "mo": 150,
      "su": 151,
      "that": 152,
      "lear": 153,
      "un": 154,
      "lo": 155,
      "learn": 156,
      "AI": 157,
      "ur": 158,
      "ct": 159,
      "ig": 160,
      "me": 161,
      "ith": 162,
      "ers": 163,
      "te": 164,
      "ul": 165,
      "con": 166,
      "learning": 167,
      "ab": 168,
      "Th": 169,
      "il": 170,
      "ge": 171,
      "res": 172,
      "are": 173,
      "ac": 174,
      "wor": 175,
      "no": 176,
      "so": 177,
      "20": 178,
      "ms": 179,
      "si": 180,
      "comp": 181,
      "by": 182,
      "fic": 183,
      "ener": 184,
      "del": 185,
      "ine": 186,
      "dat": 187,
      "ex": 188,
      "ha": 189,
      "model": 190,
      "ter": 191,
      "wh": 192,
      "work": 193,
      "per": 194,
      "In": 195,
      "cl": 196,
      "po": 197,
      "ate": 198,
      "with": 199,
      "di": 200,
      "ep": 201,
      "man": 202,
      "ment": 203,
      "pe": 204,
      "ver": 205,
      "la": 206,
      "ts": 207,
      "tra": 208,
      "gener": 209,
      "data": 210,
      "ess": 211,
      "ap": 212,
      "ial": 213,
      "The": 214,
      "ir": 215,
      "tic": 216,
      "can": 217,
      "tr": 218,
      "ll": 219,
      "qu": 220,
      "net": 221,
      "sy": 222,
      "arch": 223,
      "id": 224,
      "train": 225,
      "ive": 226,
      "ence": 227,
      "ad": 228,
      "network": 229,
      "mach": 230,
      "ated": 231,
      "ol": 232,
      "ity": 233,
      "li": 234,
      "pre": 235,
      "rom": 236,
      "ther": 237,
      "ations": 238,
      "ative": 239,
      "we": 240,
      "ical": 241,
      "from": 242,
      "such": 243,
      "du": 244,
      "ni": 245,
      "used": 246,
      "machine": 247,
      "out": 248,
      "ste": 249,
      "ction": 250,
      "ke": 251,
      "neur": 252,
      "have": 253,
      "form": 254,
      "models": 255,
      "igh": 256,
      "fe": 257,
      "ag": 258,
      "ie": 259,
      "und": 260,
      "ere": 261,
      "gor": 262,
      "im": 263,
      "deep": 264,
      "ach": 265,
      "ble": 266,
      "dis": 267,
      "syste": 268,
      "cess": 269,
      "ho": 270,
      "put": 271,
      "ud": 272,
      "ci": 273,
      "search": 274,
      "od": 275,
      "enti": 276,
      "19": 277,
      "pl": 278,
      "lay": 279,
      "gorith": 280,
      "algorith": 281,
      "comput": 282,
      "not": 283,
      "hu": 284,
      "use": 285,
      "neural": 286,
      "cre": 287,
      "gu": 288,
      "com": 289,
      "202": 290,
      "gra": 291,
      "was": 292,
      "all": 293,
      "inte": 294,
      "bo": 295,
      "spe": 296,
      "able": 297,
      "networks": 298,
      "op": 299,
      "ri": 300,
      "llig": 301,
      "human": 302,
      "ta": 303,
      "ima": 304,
      "ans": 305,
      "rep": 306,
      "ased": 307,
      "ficial": 308,
      "has": 309,
      "io": 310,
      "arti": 311,
      "incl": 312,
      "been": 313,
      "training": 314,
      "ty": 315,
      "ich": 316,
      "amp": 317,
      "ally": 318,
      "mat": 319,
      "ure": 320,
      "ies": 321,
      "ted": 322,
      "which": 323,
      "log": 324,
      "ld": 325,
      "ting": 326,
      "intellig": 327,
      "act": 328,
      "ks": 329,
      "end": 330,
      "cog": 331,
      "mb": 332,
      "par": 333,
      "dic": 334,
      "fo": 335,
      "ph": 336,
      "ug": 337,
      "ill": 338,
      "do": 339,
      "sion": 340,
      "str": 341,
      "des": 342,
      "tive": 343,
      "fer": 344,
      "research": 345,
      "tions": 346,
      "generative": 347,
      "its": 348,
      "proble": 349,
      "201": 350,
      "age": 351,
      "arge": 352,
      "lop": 353,
      "clas": 354,
      "oft": 355,
      "velop": 356,
      "process": 357,
      "develop": 358,
      "De": 359,
      "am": 360,
      "meth": 361,
      "ind": 362,
      "ision": 363,
      "abil": 364,
      "artificial": 365,
      "cogni": 366,
      "NN": 367,
      "systems": 368,
      "intelligence": 369,
      "ign": 370,
      "method": 371,
      "ard": 372,
      "their": 373,
      "now": 374,
      "based": 375,
      "mis": 376,
      "ob": 377,
      "over": 378,
      "ory": 379,
      "low": 380,
      "ack": 381,
      "ef": 382,
      "imp": 383,
      "ys": 384,
      "uld": 385,
      "),": 386,
      "led": 387,
      "examp": 388,
      "ame": 389,
      "bl": 390,
      "ced": 391,
      "wo": 392,
      "were": 393,
      "lan": 394,
      "other": 395,
      "var": 396,
      "more": 397,
      "predic": 398,
      "know": 399,
      "les": 400,
      "one": 401,
      "istic": 402,
      "resent": 403,
      "ugh": 404,
      "ev": 405,
      "mul": 406,
      "ant": 407,
      "recogni": 408,
      "produ": 409,
      "appro": 410,
      "ges": 411,
      "ide": 412,
      "tas": 413,
      "int": 414,
      "also": 415,
      "ors": 416,
      "progra": 417,
      "tech": 418,
      "cont": 419,
      "tern": 420,
      "cer": 421,
      "if": 422,
      "ures": 423,
      "ised": 424,
      "dec": 425,
      "au": 426,
      ").": 427,
      "Go": 428,
      "cor": 429,
      "ces": 430,
      "ect": 431,
      "input": 432,
      "langu": 433,
      "into": 434,
      "trans": 435,
      "trained": 436,
      "algorithms": 437,
      "tain": 438,
      "iv": 439,
      "ist": 440,
      "comm": 441,
      "represent": 442,
      "min": 443,
      "bet": 444,
      "Deep": 445,
      "but": 446,
      "der": 447,
      "om": 448,
      "arly": 449,
      "set": 450,
      "pos": 451,
      "ield": 452,
      "includ": 453,
      "xt": 454,
      "ates": 455,
      "prov": 456,
      "may": 457,
      "dif": 458,
      "ments": 459,
      "classi": 460,
      "ay": 461,
      "large": 462,
      "ser": 463,
      "they": 464,
      "super": 465,
      "how": 466,
      "cial": 467,
      "this": 468,
      "some": 469,
      "plic": 470,
      "el": 471,
      "field": 472,
      "ware": 473,
      "est": 474,
      "output": 475,
      "decision": 476,
      "iti": 477,
      "inform": 478,
      "ase": 479,
      "ics": 480,
      "using": 481,
      "This": 482,
      "algorithm": 483,
      "methods": 484,
      "recognition": 485,
      "fa": 486,
      "reg": 487,
      "tim": 488,
      "sol": 489,
      "go": 490,
      "ire": 491,
      "ort": 492,
      "image": 493,
      "mar": 494,
      "nu": 495,
      "ubl": 496,
      "any": 497,
      "anal": 498,
      "rel": 499,
      "ish": 500,
      "like": 501,
      "system": 502,
      "cur": 503,
      "king": 504,
      "up": 505,
      "than": 506,
      "language": 507,
      "\".": 508,
      "0s": 509,
      "cy": 510,
      "ech": 511,
      "many": 512,
      "under": 513,
      "It": 514,
      "cal": 515,
      "cent": 516,
      "med": 517,
      "ong": 518,
      "these": 519,
      "layer": 520,
      "example": 521,
      "high": 522,
      "og": 523,
      "ating": 524,
      "ons": 525,
      "ational": 526,
      "ight": 527,
      "tasks": 528,
      "iz": 529,
      "soft": 530,
      "ude": 531,
      "ance": 532,
      "ree": 533,
      "requ": 534,
      "sub": 535,
      "text": 536,
      "layers": 537,
      "ious": 538,
      "problems": 539,
      "ability": 540,
      "GP": 541,
      "ip": 542,
      "pat": 543,
      "ution": 544,
      "ines": 545,
      "ary": 546,
      "feat": 547,
      "pa": 548,
      "pr": 549,
      "publ": 550,
      "vers": 551,
      "new": 552,
      "fication": 553,
      "ween": 554,
      "multi": 555,
      "including": 556,
      "information": 557,
      "fir": 558,
      "ual": 559,
      "cep": 560,
      "unction": 561,
      "applic": 562,
      "ques": 563,
      "computer": 564,
      "techni": 565,
      "between": 566,
      "00": 567,
      "St": 568,
      "ding": 569,
      "et": 570,
      "fi": 571,
      "ves": 572,
      "incre": 573,
      "tho": 574,
      "ren": 575,
      "program": 576,
      "Ch": 577,
      "val": 578,
      "vised": 579,
      "ents": 580,
      "ically": 581,
      "Goog": 582,
      "Google": 583,
      "call": 584,
      "function": 585,
      "wer": 586,
      "inter": 587,
      "lect": 588,
      "ential": 589,
      "speech": 590,
      "images": 591,
      "serv": 592,
      "cri": 593,
      "ful": 594,
      "ese": 595,
      "time": 596,
      "ass": 597,
      "rough": 598,
      "dep": 599,
      "exper": 600,
      "For": 601,
      "ctive": 602,
      "ning": 603,
      "will": 604,
      "include": 605,
      "supervised": 606,
      "vir": 607,
      "themat": 608,
      "ast": 609,
      "def": 610,
      "exp": 611,
      "stru": 612,
      "approach": 613,
      "first": 614,
      "back": 615,
      "ise": 616,
      "ases": 617,
      "mathemat": 618,
      "most": 619,
      "ular": 620,
      "where": 621,
      "old": 622,
      "researchers": 623,
      "developed": 624,
      "ledge": 625,
      "called": 626,
      "ins": 627,
      "sul": 628,
      "would": 629,
      "knowledge": 630,
      "pattern": 631,
      "Re": 632,
      "sci": 633,
      "resul": 634,
      "problem": 635,
      "Un": 636,
      "bi": 637,
      "he": 638,
      "line": 639,
      "os": 640,
      "vol": 641,
      "through": 642,
      "uses": 643,
      "prob": 644,
      "uring": 645,
      "very": 646,
      "general": 647,
      "identi": 648,
      "speci": 649,
      "typ": 650,
      "mber": 651,
      "NNs": 652,
      "vari": 653,
      "content": 654,
      "men": 655,
      "ris": 656,
      "ens": 657,
      "vel": 658,
      "about": 659,
      "comple": 660,
      "had": 661,
      "2023": 662,
      "ities": 663,
      "Gener": 664,
      "ject": 665,
      "eng": 666,
      "dete": 667,
      "ite": 668,
      "ited": 669,
      "tional": 670,
      "ress": 671,
      "ression": 672,
      "differ": 673,
      "goal": 674,
      "techniques": 675,
      "Al": 676,
      "ca": 677,
      "ous": 678,
      "vide": 679,
      "make": 680,
      "pot": 681,
      "power": 682,
      "labe": 683,
      "199": 684,
      "logy": 685,
      "often": 686,
      "processing": 687,
      "possi": 688,
      "classification": 689,
      "cu": 690,
      "cap": 691,
      "ia": 692,
      "mer": 693,
      "ward": 694,
      "reas": 695,
      "loy": 696,
      "ural": 697,
      "perform": 698,
      "tri": 699,
      "wever": 700,
      "198": 701,
      "design": 702,
      "auto": 703,
      "specific": 704,
      "ear": 705,
      "fy": 706,
      "lic": 707,
      "pon": 708,
      "ple": 709,
      "ving": 710,
      "real": 711,
      "allow": 712,
      "theory": 713,
      "rodu": 714,
      "itect": 715,
      "architect": 716,
      "illion": 717,
      "certain": 718,
      "require": 719,
      "applications": 720,
      "viron": 721,
      "struct": 722,
      "\",": 723,
      "each": 724,
      "our": 725,
      "sh": 726,
      "xim": 727,
      "then": 728,
      "environ": 729,
      "art": 730,
      "dem": 731,
      "ust": 732,
      "stud": 733,
      "conne": 734,
      "consi": 735,
      "fici": 736,
      "term": 737,
      "when": 738,
      "introdu": 739,
      "cern": 740,
      "software": 741,
      "reason": 742,
      "fact": 743,
      "gro": 744,
      "ile": 745,
      "scal": 746,
      "only": 747,
      "anies": 748,
      "state": 749,
      "2024": 750,
      "ople": 751,
      "found": 752,
      "analys": 753,
      "ished": 754,
      "GPT": 755,
      "An": 756,
      "Mach": 757,
      "av": 758,
      "bu": 759,
      "bio": 760,
      "early": 761,
      "gan": 762,
      "kes": 763,
      "mil": 764,
      "oper": 765,
      "show": 766,
      "atistic": 767,
      "argu": 768,
      "tiv": 769,
      "ices": 770,
      "tool": 771,
      "being": 772,
      "rain": 773,
      "people": 774,
      "generated": 775,
      "both": 776,
      "partic": 777,
      "effe": 778,
      "features": 779,
      "experi": 780,
      "Generative": 781,
      "LL": 782,
      "eth": 783,
      "elect": 784,
      "lf": 785,
      "pag": 786,
      "pri": 787,
      "sing": 788,
      "sign": 789,
      "two": 790,
      "rect": 791,
      "them": 792,
      "level": 793,
      "suc": 794,
      "cts": 795,
      "These": 796,
      "perfor": 797,
      "veral": 798,
      "app": 799,
      "tical": 800,
      "well": 801,
      "mbol": 802,
      "Ar": 803,
      "Ho": 804,
      "ran": 805,
      "wn": 806,
      "way": 807,
      "redu": 808,
      "ences": 809,
      "col": 810,
      "statistic": 811,
      "mous": 812,
      "sur": 813,
      "concern": 814,
      "respon": 815,
      "works": 816,
      "generate": 817,
      "there": 818,
      "disco": 819,
      "logic": 820,
      "success": 821,
      "Co": 822,
      "cr": 823,
      "den": 824,
      "gy": 825,
      "hand": 826,
      "less": 827,
      "ness": 828,
      "could": 829,
      "propag": 830,
      "companies": 831,
      "what": 832,
      "dimen": 833,
      "symbol": 834,
      "adv": 835,
      "lied": 836,
      "ights": 837,
      "known": 838,
      "curren": 839,
      "patterns": 840,
      "linear": 841,
      "complex": 842,
      "environment": 843,
      "introduced": 844,
      "reasoning": 845,
      "scale": 846,
      "analysis": 847,
      "dimension": 848,
      "Pro": 849,
      "af": 850,
      "ber": 851,
      "clo": 852,
      "non": 853,
      "pp": 854,
      "pha": 855,
      "sig": 856,
      "ince": 857,
      "ater": 858,
      "ator": 859,
      "red": 860,
      "prove": 861,
      "self": 862,
      "temp": 863,
      "simil": 864,
      "mance": 865,
      "generation": 866,
      "prev": 867,
      "neurons": 868,
      "class": 869,
      "development": 870,
      "programs": 871,
      "transform": 872,
      "iven": 873,
      "multiple": 874,
      "mathematical": 875,
      "cause": 876,
      "consider": 877,
      "performance": 878,
      ".,": 879,
      "Ne": 880,
      "US": 881,
      "fra": 882,
      "hard": 883,
      "ilo": 884,
      "ved": 885,
      "ze": 886,
      "att": 887,
      "ality": 888,
      "lead": 889,
      "ice": 890,
      "icro": 891,
      "usion": 892,
      "several": 893,
      "cted": 894,
      "world": 895,
      "ficant": 896,
      "nificant": 897,
      "ages": 898,
      "improve": 899,
      "plan": 900,
      "observ": 901,
      "examples": 902,
      "posed": 903,
      "number": 904,
      "pace": 905,
      "study": 906,
      "However": 907,
      "significant": 908,
      "Ge": 909,
      "cus": 910,
      "gr": 911,
      "gen": 912,
      "mal": 913,
      "ore": 914,
      "play": 915,
      "anti": 916,
      "rele": 917,
      "ism": 918,
      "robo": 919,
      "chan": 920,
      "come": 921,
      "ently": 922,
      "sequ": 923,
      "learned": 924,
      "who": 925,
      "They": 926,
      "machines": 927,
      "descri": 928,
      "decisions": 929,
      "related": 930,
      "public": 931,
      "possible": 932,
      "electr": 933,
      "applied": 934,
      "current": 935,
      "Se": 936,
      "find": 937,
      "ner": 938,
      "ok": 939,
      "pers": 940,
      "ually": 941,
      "inf": 942,
      "estim": 943,
      "tificial": 944,
      "issu": 945,
      "off": 946,
      "uton": 947,
      "action": 948,
      "word": 949,
      "200": 950,
      "ficul": 951,
      "while": 952,
      "2025": 953,
      "logical": 954,
      "effici": 955,
      "produced": 956,
      "approxim": 957,
      "techno": 958,
      "provid": 959,
      "difficul": 960,
      "though": 961,
      "depend": 962,
      "results": 963,
      "United": 964,
      "identify": 965,
      "typically": 966,
      "video": 967,
      "buil": 968,
      "signal": 969,
      "Artificial": 970,
      "Net": 971,
      "ak": 972,
      "emp": 973,
      "fit": 974,
      "gover": 975,
      "ling": 976,
      "ming": 977,
      "nat": 978,
      "ss": 979,
      "sit": 980,
      "space": 981,
      "ven": 982,
      "inst": 983,
      "beha": 984,
      "making": 985,
      "ctor": 986,
      "ables": 987,
      "sive": 988,
      "ext": 989,
      "distri": 990,
      "computational": 991,
      "repor": 992,
      "fore": 993,
      "commend": 994,
      "published": 995,
      "valu": 996,
      "potential": 997,
      "Machine": 998,
      "tools": 999,
      "similar": 1000,
      ".\"": 1001,
      "By": 1002,
      "Con": 1003,
      "No": 1004,
      "ST": 1005,
      "Us": 1006,
      "ail": 1007,
      "auton": 1008,
      "brain": 1009,
      "clear": 1010,
      "equ": 1011,
      "fin": 1012,
      "given": 1013,
      "hel": 1014,
      "hold": 1015,
      "py": 1016,
      "same": 1017,
      "vie": 1018,
      "wr": 1019,
      "ties": 1020,
      "ick": 1021,
      "beli": 1022,
      "racy": 1023,
      "force": 1024,
      "units": 1025,
      "ules": 1026,
      "pop": 1027,
      "ditional": 1028,
      "computing": 1029,
      "humans": 1030,
      "impact": 1031,
      "predict": 1032,
      "task": 1033,
      "solve": 1034,
      "medical": 1035,
      "ization": 1036,
      "defin": 1037,
      "backpropag": 1038,
      "probabil": 1039,
      "engine": 1040,
      "Alpha": 1041,
      "hardware": 1042,
      "Ms": 1043,
      "long": 1044,
      "mit": 1045,
      "nam": 1046,
      "omous": 1047,
      "pen": 1048,
      "sa": 1049,
      "sti": 1050,
      "sis": 1051,
      "ters": 1052,
      "targe": 1053,
      "vision": 1054,
      "ances": 1055,
      "cho": 1056,
      "stand": 1057,
      "ulation": 1058,
      "actions": 1059,
      "accu": 1060,
      "soci": 1061,
      "posi": 1062,
      "without": 1063,
      "ctions": 1064,
      "iety": 1065,
      "achie": 1066,
      "196": 1067,
      "comb": 1068,
      "integr": 1069,
      "mission": 1070,
      "various": 1071,
      "predictions": 1072,
      "fair": 1073,
      "feature": 1074,
      "approaches": 1075,
      "different": 1076,
      "previous": 1077,
      "govern": 1078,
      "behav": 1079,
      "reported": 1080,
      "backpropagation": 1081,
      "Micro": 1082,
      "came": 1083,
      "fac": 1084,
      "hi": 1085,
      "hip": 1086,
      "ian": 1087,
      "lu": 1088,
      "ule": 1089,
      "intern": 1090,
      "attemp": 1091,
      "recommend": 1092,
      "ense": 1093,
      "timis": 1094,
      "andom": 1095,
      "users": 1096,
      "proposed": 1097,
      "because": 1098,
      "main": 1099,
      "unsupervised": 1100,
      "There": 1101,
      "acy": 1102,
      "2020": 1103,
      "percep": 1104,
      "pecial": 1105,
      "tru": 1106,
      "agents": 1107,
      "open": 1108,
      "optimis": 1109,
      "phys": 1110,
      "imple": 1111,
      "cording": 1112,
      "outputs": 1113,
      "fied": 1114,
      "Chat": 1115,
      "science": 1116,
      "detection": 1117,
      "avail": 1118,
      "symbolic": 1119,
      "after": 1120,
      "person": 1121,
      "Dif": 1122,
      "Ex": 1123,
      "Mind": 1124,
      "Many": 1125,
      "Su": 1126,
      "ben": 1127,
      "cing": 1128,
      "ko": 1129,
      "ken": 1130,
      "mall": 1131,
      "right": 1132,
      "since": 1133,
      "uro": 1134,
      "uation": 1135,
      "utions": 1136,
      "vo": 1137,
      "ws": 1138,
      "inforce": 1139,
      "err": 1140,
      "erial": 1141,
      "enco": 1142,
      "leg": 1143,
      "lection": 1144,
      "associ": 1145,
      "ustr": 1146,
      "rather": 1147,
      "lob": 1148,
      "meas": 1149,
      "ularly": 1150,
      "Inte": 1151,
      "syn": 1152,
      "agent": 1153,
      "improv": 1154,
      "created": 1155,
      "comes": 1156,
      "optim": 1157,
      "material": 1158,
      "parame": 1159,
      "produce": 1160,
      "transl": 1161,
      "representation": 1162,
      "DeepMind": 1163,
      "regression": 1164,
      "analy": 1165,
      "programming": 1166,
      "architectures": 1167,
      "rectly": 1168,
      "concerns": 1169,
      "Comp": 1170,
      "autonomous": 1171,
      "help": 1172,
      "accuracy": 1173,
      "behavio": 1174,
      "Microsoft": 1175,
      "implement": 1176,
      "CA": 1177,
      "amo": 1178,
      "bution": 1179,
      "ded": 1180,
      "during": 1181,
      "ec": 1182,
      "fut": 1183,
      "fusion": 1184,
      "ging": 1185,
      "hy": 1186,
      "hist": 1187,
      "ose": 1188,
      "ome": 1189,
      "rules": 1190,
      "random": 1191,
      "wa": 1192,
      "ination": 1193,
      "ants": 1194,
      "alth": 1195,
      "especial": 1196,
      "til": 1197,
      "isation": 1198,
      "asing": 1199,
      "copy": 1200,
      "step": 1201,
      "became": 1202,
      "need": 1203,
      "contain": 1204,
      "activ": 1205,
      "soph": 1206,
      "social": 1207,
      "compe": 1208,
      "compression": 1209,
      "div": 1210,
      "tics": 1211,
      "entially": 1212,
      "197": 1213,
      "graph": 1214,
      "report": 1215,
      "eval": 1216,
      "products": 1217,
      "contro": 1218,
      "inputs": 1219,
      "represented": 1220,
      "ired": 1221,
      "relations": 1222,
      "higher": 1223,
      "those": 1224,
      "jects": 1225,
      "goals": 1226,
      "argued": 1227,
      "ethical": 1228,
      "statistical": 1229,
      "ilosoph": 1230,
      "describ": 1231,
      "technology": 1232,
      "natural": 1233,
      "popular": 1234,
      "available": 1235,
      "inforcement": 1236,
      "amoun": 1237,
      "especially": 1238,
      "As": 1239,
      "LST": 1240,
      "Open": 1241,
      "RNN": 1242,
      "care": 1243,
      "eas": 1244,
      "game": 1245,
      "job": 1246,
      "ler": 1247,
      "million": 1248,
      "oth": 1249,
      "ound": 1250,
      "sto": 1251,
      "samp": 1252,
      "small": 1253,
      "vis": 1254,
      "wide": 1255,
      "ina": 1256,
      "onstr": 1257,
      "read": 1258,
      "ord": 1259,
      "theore": 1260,
      "vector": 1261,
      "rac": 1262,
      "concep": 1263,
      "simul": 1264,
      "datase": 1265,
      "within": 1266,
      "lain": 1267,
      "que": 1268,
      "due": 1269,
      "2022": 1270,
      "take": 1271,
      "does": 1272,
      "ference": 1273,
      "2015": 1274,
      "2016": 1275,
      "even": 1276,
      "auth": 1277,
      "audi": 1278,
      "common": 1279,
      "times": 1280,
      "marke": 1281,
      "000": 1282,
      "States": 1283,
      "increase": 1284,
      "health": 1285,
      "volution": 1286,
      "probability": 1287,
      "variables": 1288,
      "risk": 1289,
      "risks": 1290,
      "designed": 1291,
      "autom": 1292,
      "architecture": 1293,
      "structure": 1294,
      "demonstr": 1295,
      "priv": 1296,
      "surve": 1297,
      "dimensional": 1298,
      "frame": 1299,
      "leading": 1300,
      "influ": 1301,
      "estimated": 1302,
      "writ": 1303,
      "probabilistic": 1304,
      "ChatGPT": 1305,
      "Intellig": 1306,
      "behaviour": 1307,
      "future": 1308,
      "10": 1309,
      "Le": 1310,
      "Mar": 1311,
      "Turing": 1312,
      "billion": 1313,
      "fal": 1314,
      "fil": 1315,
      "gam": 1316,
      "har": 1317,
      "sho": 1318,
      "tre": 1319,
      "test": 1320,
      "uc": 1321,
      "une": 1322,
      "wid": 1323,
      "water": 1324,
      "invol": 1325,
      "ators": 1326,
      "orig": 1327,
      "order": 1328,
      "organ": 1329,
      "ions": 1330,
      "coun": 1331,
      "iter": 1332,
      "proper": 1333,
      "made": 1334,
      "suf": 1335,
      "supp": 1336,
      "urther": 1337,
      "ctors": 1338,
      "mem": 1339,
      "abor": 1340,
      "ably": 1341,
      "polic": 1342,
      "quality": 1343,
      "idden": 1344,
      "ighted": 1345,
      "computation": 1346,
      "create": 1347,
      "book": 1348,
      "intelligent": 1349,
      "mbed": 1350,
      "languages": 1351,
      "prof": 1352,
      "deploy": 1353,
      "ctively": 1354,
      "types": 1355,
      "label": 1356,
      "labell": 1357,
      "1990s": 1358,
      "capable": 1359,
      "biological": 1360,
      "particularly": 1361,
      "crim": 1362,
      "employ": 1363,
      "fitting": 1364,
      "distribution": 1365,
      "view": 1366,
      "fairness": 1367,
      "divid": 1368,
      "relationship": 1369,
      "privacy": 1370,
      "Intelligence": 1371,
      "false": 1372,
      "Other": 1373,
      "Rese": 1374,
      "Some": 1375,
      "car": 1376,
      "fund": 1377,
      "glob": 1378,
      "lack": 1379,
      "mid": 1380,
      "mind": 1381,
      "por": 1382,
      "rule": 1383,
      "tes": 1384,
      "tree": 1385,
      "atory": 1386,
      "arial": 1387,
      "top": 1388,
      "char": 1389,
      "cost": 1390,
      "began": 1391,
      "become": 1392,
      "maj": 1393,
      "neg": 1394,
      "sets": 1395,
      "forms": 1396,
      "forward": 1397,
      "univ": 1398,
      "respe": 1399,
      "ared": 1400,
      "sour": 1401,
      "energy": 1402,
      "modeling": 1403,
      "poin": 1404,
      "dition": 1405,
      "web": 1406,
      "feed": 1407,
      "plac": 1408,
      "computers": 1409,
      "ended": 1410,
      "foc": 1411,
      "import": 1412,
      "contin": 1413,
      "mining": 1414,
      "classifi": 1415,
      "media": 1416,
      "versarial": 1417,
      "application": 1418,
      "increasing": 1419,
      "functions": 1420,
      "biases": 1421,
      "detect": 1422,
      "LLMs": 1423,
      "discover": 1424,
      "considered": 1425,
      "planning": 1426,
      "gene": 1427,
      "belief": 1428,
      "target": 1429,
      "origin": 1430,
      "Research": 1431,
      "univers": 1432,
      "\")": 1433,
      "Ano": 1434,
      "Bay": 1435,
      "GA": 1436,
      "Hu": 1437,
      "Ima": 1438,
      "ML": 1439,
      "Ph": 1440,
      "ai": 1441,
      "adem": 1442,
      "br": 1443,
      "bas": 1444,
      "bro": 1445,
      "cul": 1446,
      "dy": 1447,
      "embed": 1448,
      "further": 1449,
      "hidden": 1450,
      "idat": 1451,
      "late": 1452,
      "mon": 1453,
      "mmar": 1454,
      "pres": 1455,
      "pass": 1456,
      "sent": 1457,
      "win": 1458,
      "zed": 1459,
      "inci": 1460,
      "ering": 1461,
      "atbo": 1462,
      "another": 1463,
      "ref": 1464,
      "rey": 1465,
      "reinforcement": 1466,
      "ency": 1467,
      "als": 1468,
      "chatbo": 1469,
      "dev": 1470,
      "stra": 1471,
      "ceiv": 1472,
      "sump": 1473,
      "conf": 1474,
      "context": 1475,
      "academ": 1476,
      "nodes": 1477,
      "simp": 1478,
      "exist": 1479,
      "clus": 1480,
      "pose": 1481,
      "diag": 1482,
      "mental": 1483,
      "pread": 1484,
      "alluc": 1485,
      "acter": 1486,
      "cogn": 1487,
      "diction": 1488,
      "philosoph": 1489,
      "stric": 1490,
      "strate": 1491,
      "2014": 1492,
      "2017": 1493,
      "processes": 1494,
      "among": 1495,
      "industr": 1496,
      "variety": 1497,
      "prediction": 1498,
      "better": 1499,
      "fake": 1500,
      "regul": 1501,
      "solutions": 1502,
      "nuclear": 1503,
      "understand": 1504,
      "princi": 1505,
      "technique": 1506,
      "videos": 1507,
      "grow": 1508,
      "particular": 1509,
      "response": 1510,
      "discovery": 1511,
      "successful": 1512,
      "difficult": 1513,
      "internal": 1514,
      "physical": 1515,
      "Diffusion": 1516,
      "legal": 1517,
      "history": 1518,
      "LSTM": 1519,
      "OpenAI": 1520,
      "audio": 1521,
      "labelled": 1522,
      "crimin": 1523,
      "major": 1524,
      "points": 1525,
      "Bayes": 1526,
      "30": 1527,
      "ANN": 1528,
      "DA": 1529,
      "DNNs": 1530,
      "Lear": 1531,
      "MA": 1532,
      "Mo": 1533,
      "Sy": 1534,
      "Sim": 1535,
      "Wh": 1536,
      "ain": 1537,
      "aim": 1538,
      "ck": 1539,
      "cate": 1540,
      "ders": 1541,
      "ether": 1542,
      "halluc": 1543,
      "jour": 1544,
      "ot": 1545,
      "osi": 1546,
      "own": 1547,
      "pur": 1548,
      "parti": 1549,
      "rights": 1550,
      "sp": 1551,
      "sed": 1552,
      "war": 1553,
      "inves": 1554,
      "reed": 1555,
      "reli": 1556,
      "recogn": 1557,
      "ories": 1558,
      "thesis": 1559,
      "around": 1560,
      "ings": 1561,
      "ross": 1562,
      "chall": 1563,
      "user": 1564,
      "lying": 1565,
      "ute": 1566,
      "see": 1567,
      "celer": 1568,
      "means": 1569,
      "consci": 1570,
      "aren": 1571,
      "acceler": 1572,
      "soc": 1573,
      "size": 1574,
      "compon": 1575,
      "compress": 1576,
      "terms": 1577,
      "whether": 1578,
      "ately": 1579,
      "dient": 1580,
      "cannot": 1581,
      "tries": 1582,
      "adversarial": 1583,
      "atively": 1584,
      "feel": 1585,
      "agree": 1586,
      "195": 1587,
      "useful": 1588,
      "parse": 1589,
      "abilities": 1590,
      "implic": 1591,
      "representations": 1592,
      "provide": 1593,
      "ishing": 1594,
      "ized": 1595,
      "GPUs": 1596,
      "China": 1597,
      "interpre": 1598,
      "explo": 1599,
      "explain": 1600,
      "insp": 1601,
      "bias": 1602,
      "possib": 1603,
      "connection": 1604,
      "group": 1605,
      "showed": 1606,
      "complexity": 1607,
      "playing": 1608,
      "released": 1609,
      "dependent": 1610,
      "built": 1611,
      "defined": 1612,
      "safe": 1613,
      "stit": 1614,
      "missions": 1615,
      "optimisation": 1616,
      "parameters": 1617,
      "hypo": 1618,
      "competi": 1619,
      "evalu": 1620,
      "control": 1621,
      "others": 1622,
      "should": 1623,
      "important": 1624,
      "continu": 1625,
      "Another": 1626,
      "GAN": 1627,
      "diagno": 1628,
      "Bayesian": 1629,
      "conscious": 1630,
      "..": 1631,
      "Ac": 1632,
      "Ad": 1633,
      "Amer": 1634,
      "CO": 1635,
      "CNNs": 1636,
      "Euro": 1637,
      "Hint": 1638,
      "If": 1639,
      "ME": 1640,
      "Rus": 1641,
      "best": 1642,
      "cra": 1643,
      "cases": 1644,
      "dr": 1645,
      "dra": 1646,
      "dig": 1647,
      "free": 1648,
      "ily": 1649,
      "ition": 1650,
      "ible": 1651,
      "lat": 1652,
      "nor": 1653,
      "ou": 1654,
      "pla": 1655,
      "ral": 1656,
      "rate": 1657,
      "righted": 1658,
      "tun": 1659,
      "table": 1660,
      "udi": 1661,
      "year": 1662,
      "incor": 1663,
      "individ": 1664,
      "ata": 1665,
      "onic": 1666,
      "once": 1667,
      "anced": 1668,
      "ream": 1669,
      "recurrent": 1670,
      "restric": 1671,
      "enab": 1672,
      "ensive": 1673,
      "espread": 1674,
      "ising": 1675,
      "coll": 1676,
      "prote": 1677,
      "sts": 1678,
      "ney": 1679,
      "seen": 1680,
      "uncertain": 1681,
      "contr": 1682,
      "ility": 1683,
      "get": 1684,
      "accur": 1685,
      "exis": 1686,
      "tering": 1687,
      "cles": 1688,
      "did": 1689,
      "directly": 1690,
      "traditional": 1691,
      "addition": 1692,
      "weight": 1693,
      "weights": 1694,
      "2021": 1695,
      "gradient": 1696,
      "special": 1697,
      "type": 1698,
      "part": 1699,
      "down": 1700,
      "misinformation": 1701,
      "obtain": 1702,
      "overfitting": 1703,
      "black": 1704,
      "includes": 1705,
      "solving": 1706,
      "centres": 1707,
      "question": 1708,
      "Stable": 1709,
      "increased": 1710,
      "services": 1711,
      "express": 1712,
      "potentially": 1713,
      "1980s": 1714,
      "automat": 1715,
      "connected": 1716,
      "levels": 1717,
      "range": 1718,
      "reduce": 1719,
      "environmental": 1720,
      "Neural": 1721,
      "observed": 1722,
      "Geoff": 1723,
      "electric": 1724,
      "efficient": 1725,
      "impacts": 1726,
      "engineering": 1727,
      "kov": 1728,
      "measure": 1729,
      "copyrighted": 1730,
      "amounts": 1731,
      "visual": 1732,
      "widely": 1733,
      "ready": 1734,
      "author": 1735,
      "volutional": 1736,
      "Markov": 1737,
      "widespread": 1738,
      "memory": 1739,
      "profess": 1740,
      "relationships": 1741,
      "character": 1742,
      "negative": 1743,
      "source": 1744,
      "genetic": 1745,
      "Image": 1746,
      "academic": 1747,
      "dictionary": 1748,
      "Learning": 1749,
      "inspired": 1750,
      "Americ": 1751,
      "Europe": 1752,
      "Hinton": 1753,
      "individual": 1754,
      "AS": 1755,
      "Cop": 1756,
      "CNN": 1757,
      "Com": 1758,
      "DNN": 1759,
      "Data": 1760,
      "En": 1761,
      "Sch": 1762,
      "Tr": 1763,
      "bad": 1764,
      "cand": 1765,
      "econ": 1766,
      "every": 1767,
      "gin": 1768,
      "gate": 1769,
      "gges": 1770,
      "ires": 1771,
      "kind": 1772,
      "mor": 1773,
      "might": 1774,
      "prac": 1775,
      "paren": 1776,
      "run": 1777,
      "rates": 1778,
      "ten": 1779,
      "uch": 1780,
      "uations": 1781,
      "ying": 1782,
      "ero": 1783,
      "ats": 1784,
      "ang": 1785,
      "receiv": 1786,
      "enh": 1787,
      "already": 1788,
      "least": 1789,
      "aster": 1790,
      "astic": 1791,
      "itself": 1792,
      "promp": 1793,
      "maxim": 1794,
      "makes": 1795,
      "rare": 1796,
      "necess": 1797,
      "next": 1798,
      "sugges": 1799,
      "local": 1800,
      "mean": 1801,
      "cond": 1802,
      "resour": 1803,
      "acks": 1804,
      "composi": 1805,
      "datab": 1806,
      "extra": 1807,
      "explic": 1808,
      "having": 1809,
      "Inter": 1810,
      "manip": 1811,
      "verse": 1812,
      "generally": 1813,
      "adop": 1814,
      "neuron": 1815,
      "dise": 1816,
      "however": 1817,
      "creating": 1818,
      "coming": 1819,
      "speak": 1820,
      "match": 1821,
      "focus": 1822,
      "2012": 1823,
      "2010s": 1824,
      "lower": 1825,
      "evol": 1826,
      "commer": 1827,
      "commun": 1828,
      "minim": 1829,
      "buted": 1830,
      "sometimes": 1831,
      "fields": 1832,
      "fail": 1833,
      "mark": 1834,
      "likely": 1835,
      "underlying": 1836,
      "news": 1837,
      "service": 1838,
      "assign": 1839,
      "experts": 1840,
      "mathematics": 1841,
      "ensor": 1842,
      "performing": 1843,
      "realistic": 1844,
      "allows": 1845,
      "required": 1846,
      "short": 1847,
      "effects": 1848,
      "experience": 1849,
      "single": 1850,
      "reduction": 1851,
      "collection": 1852,
      "statistics": 1853,
      "cloud": 1854,
      "sequence": 1855,
      "issues": 1856,
      "provides": 1857,
      "values": 1858,
      "integrated": 1859,
      "government": 1860,
      "attempt": 1861,
      "recommendations": 1862,
      "2020s": 1863,
      "perceptr": 1864,
      "improved": 1865,
      "optimization": 1866,
      "Comput": 1867,
      "CAP": 1868,
      "described": 1869,
      "demonstrated": 1870,
      "framework": 1871,
      "games": 1872,
      "trees": 1873,
      "global": 1874,
      "classifier": 1875,
      "original": 1876,
      "dynam": 1877,
      "embedding": 1878,
      "refers": 1879,
      "sumption": 1880,
      "categor": 1881,
      "stitute": 1882,
      "According": 1883,
      "years": 1884,
      "Geoffrey": 1885,
      "Trans": 1886,
      "candidat": 1887,
      "explicit": 1888,
      "AG": 1889,
      "Ap": 1890,
      "Ale": 1891,
      "Ama": 1892,
      "Fa": 1893,
      "He": 1894,
      "ID": 1895,
      "Mid": 1896,
      "May": 1897,
      "Par": 1898,
      "PUs": 1899,
      "SV": 1900,
      "To": 1901,
      "We": 1902,
      "ban": 1903,
      "bur": 1904,
      "da": 1905,
      "emo": 1906,
      "emissions": 1907,
      "far": 1908,
      "fol": 1909,
      "fies": 1910,
      "fold": 1911,
      "his": 1912,
      "just": 1913,
      "ky": 1914,
      "later": 1915,
      "miti": 1916,
      "must": 1917,
      "much": 1918,
      "pi": 1919,
      "ric": 1920,
      "sc": 1921,
      "ses": 1922,
      "senti": 1923,
      "tro": 1924,
      "tual": 1925,
      "util": 1926,
      "zon": 1927,
      "initi": 1928,
      "inference": 1929,
      "ths": 1930,
      "thin": 1931,
      "erarch": 1932,
      "atch": 1933,
      "ancial": 1934,
      "retr": 1935,
      "ensi": 1936,
      "tives": 1937,
      "che": 1938,
      "usand": 1939,
      "projects": 1940,
      "states": 1941,
      "becomes": 1942,
      "map": 1943,
      "race": 1944,
      "moder": 1945,
      "learns": 1946,
      "ither": 1947,
      "cons": 1948,
      "conven": 1949,
      "abl": 1950,
      "access": 1951,
      "according": 1952,
      "2019": 1953,
      "sian": 1954,
      "sible": 1955,
      "compared": 1956,
      "expe": 1957,
      "exact": 1958,
      "white": 1959,
      "lap": 1960,
      "law": 1961,
      "generating": 1962,
      "quanti": 1963,
      "lier": 1964,
      "prefer": 1965,
      "key": 1966,
      "discrimin": 1967,
      "hop": 1968,
      "2026": 1969,
      "grammar": 1970,
      "boom": 1971,
      "speed": 1972,
      "rix": 1973,
      "ios": 1974,
      "mbers": 1975,
      "domin": 1976,
      "2018": 1977,
      "cognitive": 1978,
      "objects": 1979,
      "classify": 1980,
      "establ": 1981,
      "algorithmic": 1982,
      "fakes": 1983,
      "numer": 1984,
      "paper": 1985,
      "thousand": 1986,
      "critic": 1987,
      "assist": 1988,
      "scienti": 1989,
      "result": 1990,
      "complete": 1991,
      "capabilities": 1992,
      "structures": 1993,
      "factor": 1994,
      "tivity": 1995,
      "effect": 1996,
      "experiments": 1997,
      "ethics": 1998,
      "prior": 1999,
      "thereby": 2000,
      "fraud": 2001,
      "ilot": 2002,
      "atten": 2003,
      "significantly": 2004,
      "robot": 2005,
      "robots": 2006,
      "electronic": 2007,
      "Search": 2008,
      "efficiency": 2009,
      "build": 2010,
      "situations": 2011,
      "value": 2012,
      "financial": 2013,
      "achieved": 2014,
      "combin": 2015,
      "hierarch": 2016,
      "perception": 2017,
      "voice": 2018,
      "error": 2019,
      "associated": 2020,
      "translation": 2021,
      "activation": 2022,
      "jobs": 2023,
      "theoretical": 2024,
      "concepts": 2025,
      "dataset": 2026,
      "market": 2027,
      "survey": 2028,
      "writing": 2029,
      "harm": 2030,
      "properties": 2031,
      "suffici": 2032,
      "labels": 2033,
      "sentences": 2034,
      "chatbots": 2035,
      "devices": 2036,
      "journey": 2037,
      "component": 2038,
      "drug": 2039,
      "accurate": 2040,
      "electricity": 2041,
      "meaning": 2042,
      "commercial": 2043,
      "Alex": 2044,
      "Amazon": 2045,
      "Midjourney": 2046,
      "retrie": 2047,
      "16": 2048,
      "70": 2049,
      "Act": 2050,
      "ANNs": 2051,
      "Be": 2052,
      "Each": 2053,
      "IT": 2054,
      "Jo": 2055,
      "Ma": 2056,
      "Mod": 2057,
      "MIT": 2058,
      "Since": 2059,
      "Tech": 2060,
      "bon": 2061,
      "bre": 2062,
      "bod": 2063,
      "case": 2064,
      "done": 2065,
      "eli": 2066,
      "frequ": 2067,
      "ged": 2068,
      "hn": 2069,
      "her": 2070,
      "ier": 2071,
      "iod": 2072,
      "je": 2073,
      "ker": 2074,
      "lar": 2075,
      "mial": 2076,
      "oc": 2077,
      "pic": 2078,
      "psy": 2079,
      "pho": 2080,
      "ry": 2081,
      "tz": 2082,
      "tur": 2083,
      "um": 2084,
      "vi": 2085,
      "vin": 2086,
      "vant": 2087,
      "yp": 2088,
      "yle": 2089,
      "yet": 2090,
      "thus": 2091,
      "thres": 2092,
      "ern": 2093,
      "ann": 2094,
      "anom": 2095,
      "rec": 2096,
      "ene": 2097,
      "tit": 2098,
      "ley": 2099,
      "offer": 2100,
      "token": 2101,
      "row": 2102,
      "ched": 2103,
      "chastic": 2104,
      "determ": 2105,
      "ital": 2106,
      "itate": 2107,
      "enter": 2108,
      "prog": 2109,
      "stated": 2110,
      "studi": 2111,
      "style": 2112,
      "lyno": 2113,
      "mains": 2114,
      "raw": 2115,
      "nel": 2116,
      "neuro": 2117,
      "separ": 2118,
      "second": 2119,
      "until": 2120,
      "loo": 2121,
      "loss": 2122,
      "convolutional": 2123,
      "consumption": 2124,
      "area": 2125,
      "areas": 2126,
      "acqu": 2127,
      "side": 2128,
      "company": 2129,
      "termin": 2130,
      "period": 2131,
      "Institute": 2132,
      "point": 2133,
      "polyno": 2134,
      "dia": 2135,
      "laws": 2136,
      "generator": 2137,
      "idence": 2138,
      "add": 2139,
      "adap": 2140,
      "additional": 2141,
      "lim": 2142,
      "limit": 2143,
      "outcomes": 2144,
      "formal": 2145,
      "fect": 2146,
      "aging": 2147,
      "agreed": 2148,
      "discus": 2149,
      "display": 2150,
      "cies": 2151,
      "cred": 2152,
      "guid": 2153,
      "box": 2154,
      "articles": 2155,
      "amples": 2156,
      "matrix": 2157,
      "logies": 2158,
      "actors": 2159,
      "phone": 2160,
      "domains": 2161,
      "developers": 2162,
      "object": 2163,
      "impos": 2164,
      "predicting": 2165,
      "predictive": 2166,
      "recognize": 2167,
      "mini": 2168,
      "regard": 2169,
      "regular": 2170,
      "solution": 2171,
      "upon": 2172,
      "izing": 2173,
      "GPU": 2174,
      "assess": 2175,
      "depth": 2176,
      "virtual": 2177,
      "define": 2178,
      "Reg": 2179,
      "osen": 2180,
      "identified": 2181,
      "differential": 2182,
      "Although": 2183,
      "performed": 2184,
      "connections": 2185,
      "operations": 2186,
      "concerned": 2187,
      "handle": 2188,
      "advanced": 2189,
      "transformer": 2190,
      "Gemini": 2191,
      "relevant": 2192,
      "issue": 2193,
      "approximation": 2194,
      "approximate": 2195,
      "thought": 2196,
      "situation": 2197,
      "similarity": 2198,
      "1960s": 2199,
      "previously": 2200,
      "true": 2201,
      "Examples": 2202,
      "Such": 2203,
      "bench": 2204,
      "benef": 2205,
      "measures": 2206,
      "synap": 2207,
      "materials": 2208,
      "ways": 2209,
      "easy": 2210,
      "stochastic": 2211,
      "datasets": 2212,
      "healthcare": 2213,
      "automated": 2214,
      "involves": 2215,
      "countries": 2216,
      "policy": 2217,
      "deployed": 2218,
      "carbon": 2219,
      "funding": 2220,
      "respect": 2221,
      "focuses": 2222,
      "universal": 2223,
      "broad": 2224,
      "existential": 2225,
      "industry": 2226,
      "understanding": 2227,
      "DALL": 2228,
      "Simil": 2229,
      "purpose": 2230,
      "recognise": 2231,
      "challen": 2232,
      "society": 2233,
      "interpret": 2234,
      "safety": 2235,
      "continuous": 2236,
      "craf": 2237,
      "tuned": 2238,
      "incorpor": 2239,
      "contrast": 2240,
      "profession": 2241,
      "Copilot": 2242,
      "Eng": 2243,
      "Schmid": 2244,
      "econom": 2245,
      "parency": 2246,
      "resources": 2247,
      "follow": 2248,
      "modern": 2249,
      "attention": 2250,
      "body": 2251,
      "threshold": 2252,
      "anomal": 2253,
      "determine": 2254,
      "polynomial": 2255,
      "35": 2256,
      "Af": 2257,
      "At": 2258,
      "Asi": 2259,
      "Cun": 2260,
      "DE": 2261,
      "EU": 2262,
      "Early": 2263,
      "FR": 2264,
      "Fe": 2265,
      "Gro": 2266,
      "Gra": 2267,
      "Jap": 2268,
      "La": 2269,
      "MM": 2270,
      "Me": 2271,
      "Mul": 2272,
      "NI": 2273,
      "On": 2274,
      "One": 2275,
      "Pri": 2276,
      "RFR": 2277,
      "Typ": 2278,
      "Var": 2279,
      "Wor": 2280,
      "Yann": 2281,
      "Zero": 2282,
      "ainst": 2283,
      "cir": 2284,
      "cross": 2285,
      "emer": 2286,
      "either": 2287,
      "fine": 2288,
      "ger": 2289,
      "gies": 2290,
      "gend": 2291,
      "hic": 2292,
      "here": 2293,
      "ib": 2294,
      "ians": 2295,
      "jus": 2296,
      "jud": 2297,
      "jec": 2298,
      "lish": 2299,
      "mi": 2300,
      "micro": 2301,
      "nal": 2302,
      "ough": 2303,
      "ped": 2304,
      "present": 2305,
      "port": 2306,
      "site": 2307,
      "sparse": 2308,
      "sensi": 2309,
      "tary": 2310,
      "via": 2311,
      "watch": 2312,
      "xel": 2313,
      "zz": 2314,
      "zing": 2315,
      "inv": 2316,
      "indu": 2317,
      "indic": 2318,
      "thing": 2319,
      "three": 2320,
      "ery": 2321,
      "ature": 2322,
      "atics": 2323,
      "ond": 2324,
      "ones": 2325,
      "online": 2326,
      "rew": 2327,
      "recon": 2328,
      "reach": 2329,
      "replac": 2330,
      "enar": 2331,
      "eder": 2332,
      "thetic": 2333,
      "ists": 2334,
      "lever": 2335,
      "assu": 2336,
      "decre": 2337,
      "core": 2338,
      "code": 2339,
      "usage": 2340,
      "vember": 2341,
      "vehic": 2342,
      "star": 2343,
      "stanti": 2344,
      "before": 2345,
      "sex": 2346,
      "selection": 2347,
      "sure": 2348,
      "uni": 2349,
      "unched": 2350,
      "loc": 2351,
      "learner": 2352,
      "mechan": 2353,
      "contri": 2354,
      "ild": 2355,
      "illa": 2356,
      "ressive": 2357,
      "accep": 2358,
      "sound": 2359,
      "clust": 2360,
      "mann": 2361,
      "mentally": 2362,
      "appe": 2363,
      "try": 2364,
      "oltz": 2365,
      "agg": 2366,
      "against": 2367,
      "hood": 2368,
      "plant": 2369,
      "huber": 2370,
      "bound": 2371,
      "humanity": 2372,
      "takes": 2373,
      "taken": 2374,
      "actually": 2375,
      "domain": 2376,
      "strong": 2377,
      "descent": 2378,
      "agement": 2379,
      "mises": 2380,
      "event": 2381,
      "idea": 2382,
      "cord": 2383,
      "correctly": 2384,
      "transparency": 2385,
      "setting": 2386,
      "included": 2387,
      "informatics": 2388,
      "cyber": 2389,
      "calcul": 2390,
      "requires": 2391,
      "substanti": 2392,
      "inese": 2393,
      "ception": 2394,
      "rend": 2395,
      "Chinese": 2396,
      "defend": 2397,
      "Recent": 2398,
      "biased": 2399,
      "General": 2400,
      "powered": 2401,
      "labeled": 2402,
      "1991": 2403,
      "autoenco": 2404,
      "allowed": 2405,
      "shallow": 2406,
      "students": 2407,
      "considers": 2408,
      "facts": 2409,
      "And": 2410,
      "operate": 2411,
      "operating": 2412,
      "effective": 2413,
      "collect": 2414,
      "respond": 2415,
      "responding": 2416,
      "advances": 2417,
      "prevent": 2418,
      "transformers": 2419,
      "attack": 2420,
      "observations": 2421,
      "custo": 2422,
      "change": 2423,
      "issued": 2424,
      "2009": 2425,
      "difficulty": 2426,
      "sites": 2427,
      "instances": 2428,
      "November": 2429,
      "named": 2430,
      "choose": 2431,
      "standard": 2432,
      "achieve": 2433,
      "integration": 2434,
      "governments": 2435,
      "personal": 2436,
      "errors": 2437,
      "synthetic": 2438,
      "optimal": 2439,
      "parameter": 2440,
      "analyse": 2441,
      "implemented": 2442,
      "copyright": 2443,
      "graphics": 2444,
      "describes": 2445,
      "amount": 2446,
      "automation": 2447,
      "influence": 2448,
      "written": 2449,
      "LeCun": 2450,
      "billions": 2451,
      "suffer": 2452,
      "support": 2453,
      "deployment": 2454,
      "testing": 2455,
      "respectively": 2456,
      "feedforward": 2457,
      "increasingly": 2458,
      "aims": 2459,
      "basic": 2460,
      "clustering": 2461,
      "philosophy": 2462,
      "strategy": 2463,
      "strategies": 2464,
      "growth": 2465,
      "Syste": 2466,
      "When": 2467,
      "hallucin": 2468,
      "investi": 2469,
      "implicit": 2470,
      "possibility": 2471,
      "hypothe": 2472,
      "competitive": 2473,
      "Russe": 2474,
      "latent": 2475,
      "normal": 2476,
      "enabled": 2477,
      "collabor": 2478,
      "existing": 2479,
      "European": 2480,
      "ginning": 2481,
      "prompts": 2482,
      "necessary": 2483,
      "database": 2484,
      "Internet": 2485,
      "manipulation": 2486,
      "adopted": 2487,
      "evolution": 2488,
      "dynamic": 2489,
      "candidate": 2490,
      "Face": 2491,
      "pixel": 2492,
      "scenar": 2493,
      "initial": 2494,
      "exactly": 2495,
      "preferences": 2496,
      "established": 2497,
      "thousands": 2498,
      "hierarchy": 2499,
      "retrieval": 2500,
      "Modern": 2501,
      "elimin": 2502,
      "psycho": 2503,
      "limited": 2504,
      "Schmidhuber": 2505,
      "Japan": 2506,
      "vehicles": 2507,
      "clusters": 2508,
      "18": 2509,
      "100": 2510,
      "50": 2511,
      "60": 2512,
      "AE": 2513,
      "Alan": 2514,
      "AME": 2515,
      "But": 2516,
      "Bri": 2517,
      "Boltz": 2518,
      "Cl": 2519,
      "Cy": 2520,
      "Car": 2521,
      "Clo": 2522,
      "Do": 2523,
      "EE": 2524,
      "Ener": 2525,
      "Fu": 2526,
      "Fra": 2527,
      "Ga": 2528,
      "Given": 2529,
      "IMIT": 2530,
      "Ju": 2531,
      "Jü": 2532,
      "Jan": 2533,
      "Jose": 2534,
      "LI": 2535,
      "LP": 2536,
      "Large": 2537,
      "Mc": 2538,
      "Man": 2539,
      "March": 2540,
      "More": 2541,
      "Nations": 2542,
      "Qw": 2543,
      "Ro": 2544,
      "RNNs": 2545,
      "Rule": 2546,
      "Sep": 2547,
      "Spe": 2548,
      "Train": 2549,
      "TAME": 2550,
      "TIMIT": 2551,
      "Using": 2552,
      "VID": 2553,
      "ade": 2554,
      "aid": 2555,
      "ather": 2556,
      "bit": 2557,
      "cto": 2558,
      "ey": 2559,
      "ele": 2560,
      "fly": 2561,
      "ffic": 2562,
      "fall": 2563,
      "flow": 2564,
      "iver": 2565,
      "ients": 2566,
      "kill": 2567,
      "land": 2568,
      "mble": 2569,
      "nar": 2570,
      "omis": 2571,
      "ogo": 2572,
      "pion": 2573,
      "past": 2574,
      "ras": 2575,
      "rational": 2576,
      "rgen": 2577,
      "stic": 2578,
      "sens": 2579,
      "sense": 2580,
      "tal": 2581,
      "ture": 2582,
      "trend": 2583,
      "uel": 2584,
      "uary": 2585,
      "van": 2586,
      "vul": 2587,
      "wit": 2588,
      "you": 2589,
      "{\\": 2590,
      "inno": 2591,
      "iness": 2592,
      "inher": 2593,
      "annu": 2594,
      "reat": 2595,
      "rely": 2596,
      "reward": 2597,
      "enor": 2598,
      "enable": 2599,
      "enables": 2600,
      "along": 2601,
      "alities": 2602,
      "although": 2603,
      "oral": 2604,
      "edges": 2605,
      "aring": 2606,
      "artic": 2607,
      "arily": 2608,
      "tice": 2609,
      "isition": 2610,
      "lec": 2611,
      "too": 2612,
      "toward": 2613,
      "chess": 2614,
      "chec": 2615,
      "chain": 2616,
      "cour": 2617,
      "coding": 2618,
      "ush": 2619,
      "usually": 2620,
      "sta": 2621,
      "becoming": 2622,
      "never": 2623,
      "nets": 2624,
      "cell": 2625,
      "mod": 2626,
      "molec": 2627,
      "unit": 2628,
      "unless": 2629,
      "unknown": 2630,
      "uristic": 2631,
      "tex": 2632,
      "teach": 2633,
      "const": 2634,
      "consu": 2635,
      "concl": 2636,
      "conver": 2637,
      "convin": 2638,
      "abs": 2639,
      "abstra": 2640,
      "resol": 2641,
      "active": 2642,
      "across": 2643,
      "explan": 2644,
      "exhi": 2645,
      "happ": 2646,
      "Intern": 2647,
      "clip": 2648,
      "click": 2649,
      "manif": 2650,
      "launched": 2651,
      "ird": 2652,
      "cancer": 2653,
      "premises": 2654,
      "weap": 2655,
      "few": 2656,
      "feas": 2657,
      "deepfakes": 2658,
      "disci": 2659,
      "disting": 2660,
      "house": 2661,
      "ples": 2662,
      "plans": 2663,
      "noted": 2664,
      "notably": 2665,
      "creation": 2666,
      "spect": 2667,
      "matic": 2668,
      "paral": 2669,
      "parad": 2670,
      "four": 2671,
      "founder": 2672,
      "foot": 2673,
      "ugg": 2674,
      "illance": 2675,
      "sions": 2676,
      "ferent": 2677,
      "2011": 2678,
      "developing": 2679,
      "developments": 2680,
      "inding": 2681,
      "evac": 2682,
      "events": 2683,
      "evidence": 2684,
      "mulate": 2685,
      "product": 2686,
      "producing": 2687,
      "correct": 2688,
      "ival": 2689,
      "ives": 2690,
      "commons": 2691,
      "representative": 2692,
      "proving": 2693,
      "serious": 2694,
      "superintelligence": 2695,
      "informed": 2696,
      "regulation": 2697,
      "solved": 2698,
      "good": 2699,
      "marking": 2700,
      "numbers": 2701,
      "analogo": 2702,
      "relatively": 2703,
      "central": 2704,
      "ize": 2705,
      "ancements": 2706,
      "subject": 2707,
      "patients": 2708,
      "print": 2709,
      "version": 2710,
      "versity": 2711,
      "multilayer": 2712,
      "firm": 2713,
      "file": 2714,
      "valid": 2715,
      "interes": 2716,
      "interest": 2717,
      "interaction": 2718,
      "fully": 2719,
      "defines": 2720,
      "mostly": 2721,
      "resulting": 2722,
      "Union": 2723,
      "identification": 2724,
      "difference": 2725,
      "1986": 2726,
      "specifically": 2727,
      "allowing": 2728,
      "requirements": 2729,
      "environments": 2730,
      "factors": 2731,
      "statement": 2732,
      "statements": 2733,
      "bioinformatics": 2734,
      "shown": 2735,
      "argues": 2736,
      "effectively": 2737,
      "experimental": 2738,
      "reducing": 2739,
      "collap": 2740,
      "surpass": 2741,
      "therefore": 2742,
      "dimensionality": 2743,
      "close": 2744,
      "classes": 2745,
      "improvements": 2746,
      "observation": 2747,
      "malware": 2748,
      "sequent": 2749,
      "sequences": 2750,
      "finding": 2751,
      "words": 2752,
      "technologies": 2753,
      "provided": 2754,
      "providers": 2755,
      "nature": 2756,
      "extended": 2757,
      "extensive": 2758,
      "distributed": 2759,
      "Conven": 2760,
      "equal": 2761,
      "equations": 2762,
      "finite": 2763,
      "probabilities": 2764,
      "engineers": 2765,
      "still": 2766,
      "targets": 2767,
      "position": 2768,
      "positive": 2769,
      "achieving": 2770,
      "facil": 2771,
      "facial": 2772,
      "international": 2773,
      "attempts": 2774,
      "Different": 2775,
      "association": 2776,
      "improves": 2777,
      "analyzed": 2778,
      "implementation": 2779,
      "dedu": 2780,
      "contains": 2781,
      "1970s": 2782,
      "evaluation": 2783,
      "sample": 2784,
      "samples": 2785,
      "sampling": 2786,
      "ordin": 2787,
      "racist": 2788,
      "authors": 2789,
      "marketing": 2790,
      "surveillance": 2791,
      "frameworks": 2792,
      "feedback": 2793,
      "Human": 2794,
      "basis": 2795,
      "months": 2796,
      "preser": 2797,
      "principles": 2798,
      "successfully": 2799,
      "Most": 2800,
      "aimed": 2801,
      "hallucination": 2802,
      "partial": 2803,
      "compressor": 2804,
      "implications": 2805,
      "possibly": 2806,
      "hypothesis": 2807,
      "consciousness": 2808,
      "digits": 2809,
      "restricted": 2810,
      "protein": 2811,
      "specialised": 2812,
      "obtaining": 2813,
      "expressed": 2814,
      "American": 2815,
      "kinds": 2816,
      "practical": 2817,
      "maximise": 2818,
      "composition": 2819,
      "diseases": 2820,
      "speaker": 2821,
      "perceptron": 2822,
      "Computing": 2823,
      "AGI": 2824,
      "burden": 2825,
      "days": 2826,
      "mitig": 2827,
      "utility": 2828,
      "consist": 2829,
      "expected": 2830,
      "dominant": 2831,
      "numerical": 2832,
      "criticism": 2833,
      "assistants": 2834,
      "combined": 2835,
      "John": 2836,
      "frequently": 2837,
      "jective": 2838,
      "kernel": 2839,
      "occur": 2840,
      "acquisition": 2841,
      "address": 2842,
      "limitations": 2843,
      "benefit": 2844,
      "synapses": 2845,
      "challenges": 2846,
      "English": 2847,
      "anomaly": 2848,
      "Meta": 2849,
      "Multi": 2850,
      "NIST": 2851,
      "Typically": 2852,
      "circu": 2853,
      "gender": 2854,
      "started": 2855,
      "aggreg": 2856,
      "eventually": 2857,
      "customer": 2858,
      "Systems": 2859,
      "hallucinations": 2860,
      "Russell": 2861,
      "scenarios": 2862,
      "Boltzmann": 2863,
      "Energy": 2864,
      "July": 2865,
      "Jürgen": 2866,
      "Joseph": 2867,
      "Qwen": 2868,
      "TAMER": 2869,
      "pione": 2870,
      "vulner": 2871,
      "enormous": 2872,
      "International": 2873,
      "discipl": 2874,
      "distingu": 2875,
      "footprint": 2876,
      "commonsense": 2877,
      "analogous": 2878,
      "\"),": 2879,
      "\").": 2880,
      "(\"": 2881,
      ".)": 2882,
      "21": 2883,
      "3D": 2884,
      "48": 2885,
      "All": 2886,
      "Apr": 2887,
      "BS": 2888,
      "Big": 2889,
      "Cri": 2890,
      "Dan": 2891,
      "During": 2892,
      "Dream": 2893,
      "EO": 2894,
      "ET": 2895,
      "Fran": 2896,
      "Gen": 2897,
      "Glob": 2898,
      "Ha": 2899,
      "Hor": 2900,
      "High": 2901,
      "IA": 2902,
      "IB": 2903,
      "Is": 2904,
      "June": 2905,
      "MP": 2906,
      "MNIST": 2907,
      "Nu": 2908,
      "Nvi": 2909,
      "NVID": 2910,
      "Octo": 2911,
      "Pa": 2912,
      "Pho": 2913,
      "Res": 2914,
      "Run": 2915,
      "Rep": 2916,
      "Sh": 2917,
      "Sha": 2918,
      "Sam": 2919,
      "Sparse": 2920,
      "Tensor": 2921,
      "TPUs": 2922,
      "UK": 2923,
      "Uni": 2924,
      "VAE": 2925,
      "XAI": 2926,
      "ams": 2927,
      "adi": 2928,
      "aver": 2929,
      "away": 2930,
      "aMA": 2931,
      "bor": 2932,
      "bar": 2933,
      "bus": 2934,
      "bra": 2935,
      "bran": 2936,
      "cat": 2937,
      "cle": 2938,
      "cas": 2939,
      "cit": 2940,
      "cil": 2941,
      "cking": 2942,
      "cats": 2943,
      "dri": 2944,
      "day": 2945,
      "eve": 2946,
      "fast": 2947,
      "faster": 2948,
      "gth": 2949,
      "hund": 2950,
      "ied": 2951,
      "ification": 2952,
      "jo": 2953,
      "kin": 2954,
      "kers": 2955,
      "kush": 2956,
      "lation": 2957,
      "last": 2958,
      "mus": 2959,
      "oid": 2960,
      "oted": 2961,
      "oks": 2962,
      "pal": 2963,
      "pie": 2964,
      "player": 2965,
      "pite": 2966,
      "pick": 2967,
      "plain": 2968,
      "ron": 2969,
      "rase": 2970,
      "sal": 2971,
      "smar": 2972,
      "swar": 2973,
      "ton": 2974,
      "tend": 2975,
      "tens": 2976,
      "tensor": 2977,
      "ue": 2978,
      "uzz": 2979,
      "vation": 2980,
      "vast": 2981,
      "won": 2982,
      "wan": 2983,
      "xed": 2984,
      "xic": 2985,
      "zip": 2986,
      "||": 2987,
      "intr": 2988,
      "incomplete": 2989,
      "thma": 2990,
      "threat": 2991,
      "third": 2992,
      "anno": 2993,
      "reme": 2994,
      "refer": 2995,
      "recent": 2996,
      "review": 2997,
      "retur": 2998,
      "enced": 2999,
      "encies": 3000,
      "alone": 3001,
      "almost": 3002,
      "alpha": 3003,
      "ora": 3004,
      "theories": 3005,
      "ars": 3006,
      "arian": 3007,
      "esti": 3008,
      "tish": 3009,
      "ison": 3010,
      "istr": 3011,
      "let": 3012,
      "lets": 3013,
      "ash": 3014,
      "asion": 3015,
      "asthma": 3016,
      "tos": 3017,
      "tood": 3018,
      "toxic": 3019,
      "roid": 3020,
      "champ": 3021,
      "chance": 3022,
      "chip": 3023,
      "chosen": 3024,
      "deg": 3025,
      "determin": 3026,
      "deception": 3027,
      "usible": 3028,
      "ussian": 3029,
      "vectors": 3030,
      "iting": 3031,
      "itary": 3032,
      "itarian": 3033,
      "entral": 3034,
      "proof": 3035,
      "proposi": 3036,
      "stor": 3037,
      "stren": 3038,
      "stories": 3039,
      "stream": 3040,
      "mploy": 3041,
      "beg": 3042,
      "beat": 3043,
      "below": 3044,
      "beginning": 3045,
      "mail": 3046,
      "raised": 3047,
      "select": 3048,
      "sector": 3049,
      "fortable": 3050,
      "ceed": 3051,
      "ceive": 3052,
      "modif": 3053,
      "moved": 3054,
      "suit": 3055,
      "summar": 3056,
      "unced": 3057,
      "unlike": 3058,
      "unseen": 3059,
      "uncil": 3060,
      "look": 3061,
      "ury": 3062,
      "uris": 3063,
      "cture": 3064,
      "mework": 3065,
      "condi": 3066,
      "consis": 3067,
      "acc": 3068,
      "aces": 3069,
      "notions": 3070,
      "noise": 3071,
      "novel": 3072,
      "compar": 3073,
      "deliver": 3074,
      "exam": 3075,
      "extern": 3076,
      "exec": 3077,
      "tered": 3078,
      "why": 3079,
      "workers": 3080,
      "cla": 3081,
      "clar": 3082,
      "poll": 3083,
      "poli": 3084,
      "direct": 3085,
      "tract": 3086,
      "tracking": 3087,
      "generates": 3088,
      "tric": 3089,
      "trick": 3090,
      "iden": 3091,
      "ident": 3092,
      "ades": 3093,
      "adjus": 3094,
      "prec": 3095,
      "preval": 3096,
      "weather": 3097,
      "outlier": 3098,
      "outperformed": 3099,
      "stead": 3100,
      "fective": 3101,
      "imate": 3102,
      "discre": 3103,
      "searches": 3104,
      "compute": 3105,
      "computations": 3106,
      "creen": 3107,
      "comfortable": 3108,
      "board": 3109,
      "ried": 3110,
      "answer": 3111,
      "phones": 3112,
      "dou": 3113,
      "strugg": 3114,
      "desired": 3115,
      "destro": 3116,
      "2010": 3117,
      "cognition": 3118,
      "ards": 3119,
      "objec": 3120,
      "women": 3121,
      "varying": 3122,
      "predicted": 3123,
      "istics": 3124,
      "production": 3125,
      "approval": 3126,
      "appropri": 3127,
      "intended": 3128,
      "contest": 3129,
      "correl": 3130,
      "transfer": 3131,
      "ived": 3132,
      "commonly": 3133,
      "representing": 3134,
      "poses": 3135,
      "classified": 3136,
      "face": 3137,
      "going": 3138,
      "marks": 3139,
      "centre": 3140,
      "centers": 3141,
      "century": 3142,
      "highl": 3143,
      "subfield": 3144,
      "versions": 3145,
      "increases": 3146,
      "programmed": 3147,
      "crime": 3148,
      "critical": 3149,
      "expert": 3150,
      "Formal": 3151,
      "struction": 3152,
      "instit": 3153,
      "Reinforcement": 3154,
      "Unlike": 3155,
      "held": 3156,
      "generalisation": 3157,
      "variate": 3158,
      "variable": 3159,
      "caused": 3160,
      "powerful": 3161,
      "capac": 3162,
      "1982": 3163,
      "earlier": 3164,
      "ground": 3165,
      "founded": 3166,
      "foundation": 3167,
      "Anal": 3168,
      "Machines": 3169,
      "avoid": 3170,
      "military": 3171,
      "beings": 3172,
      "raints": 3173,
      "LLaMA": 3174,
      "colle": 3175,
      "surro": 3176,
      "Council": 3177,
      "cru": 3178,
      "symbols": 3179,
      "clock": 3180,
      "nonlinear": 3181,
      "pping": 3182,
      "similarly": 3183,
      "considering": 3184,
      "release": 3185,
      "robotics": 3186,
      "whole": 3187,
      "describe": 3188,
      "publicly": 3189,
      "publications": 3190,
      "electrical": 3191,
      "Several": 3192,
      "finds": 3193,
      "infras": 3194,
      "estimation": 3195,
      "2000s": 3196,
      "efficiently": 3197,
      "approximately": 3198,
      "difficulties": 3199,
      "signals": 3200,
      "instance": 3201,
      "extreme": 3202,
      "forecas": 3203,
      "equival": 3204,
      "finance": 3205,
      "holders": 3206,
      "believe": 3207,
      "definition": 3208,
      "AlphaGo": 3209,
      "said": 3210,
      "choices": 3211,
      "combine": 3212,
      "faces": 3213,
      "recommendation": 3214,
      "tructure": 3215,
      "opening": 3216,
      "Sub": 3217,
      "voices": 3218,
      "Companies": 3219,
      "implementations": 3220,
      "CAA": 3221,
      "histor": 3222,
      "wave": 3223,
      "needs": 3224,
      "millions": 3225,
      "smaller": 3226,
      "theorem": 3227,
      "concept": 3228,
      "simulate": 3229,
      "influential": 3230,
      "filters": 3231,
      "gaming": 3232,
      "treat": 3233,
      "unemploy": 3234,
      "width": 3235,
      "watermarking": 3236,
      "property": 3237,
      "supply": 3238,
      "policies": 3239,
      "employed": 3240,
      "employment": 3241,
      "globally": 3242,
      "tests": 3243,
      "topics": 3244,
      "website": 3245,
      "websites": 3246,
      "placed": 3247,
      "classifiers": 3248,
      "detecting": 3249,
      "discovered": 3250,
      "discovering": 3251,
      "universities": 3252,
      "Philosoph": 3253,
      "passed": 3254,
      "winning": 3255,
      "chatbot": 3256,
      "config": 3257,
      "simple": 3258,
      "cluster": 3259,
      "regulatory": 3260,
      "principal": 3261,
      "growing": 3262,
      "Simon": 3263,
      "While": 3264,
      "spam": 3265,
      "spaces": 3266,
      "reliable": 3267,
      "challeng": 3268,
      "socie": 3269,
      "agreement": 3270,
      "1950s": 3271,
      "groups": 3272,
      "competition": 3273,
      "evaluate": 3274,
      "evaluated": 3275,
      "GANs": 3276,
      "diagnosis": 3277,
      "...": 3278,
      "COMP": 3279,
      "place": 3280,
      "enabling": 3281,
      "protection": 3282,
      "uncertainty": 3283,
      "downstream": 3284,
      "automatically": 3285,
      "measured": 3286,
      "authoritarian": 3287,
      "Americans": 3288,
      "ASR": 3289,
      "Commission": 3290,
      "moral": 3291,
      "received": 3292,
      "suggested": 3293,
      "extract": 3294,
      "disease": 3295,
      "assignment": 3296,
      "perceptrons": 3297,
      "categories": 3298,
      "Apple": 3299,
      "SVM": 3300,
      "emotion": 3301,
      "thinking": 3302,
      "maps": 3303,
      "conventional": 3304,
      "discriminator": 3305,
      "scientists": 3306,
      "harmful": 3307,
      "sufficient": 3308,
      "sufficiently": 3309,
      "Techno": 3310,
      "progressive": 3311,
      "studied": 3312,
      "separate": 3313,
      "looking": 3314,
      "adaptive": 3315,
      "discussions": 3316,
      "impossible": 3317,
      "benchmark": 3318,
      "Similarly": 3319,
      "interpretation": 3320,
      "crafted": 3321,
      "professionals": 3322,
      "economics": 3323,
      "followed": 3324,
      "Prize": 3325,
      "Various": 3326,
      "presented": 3327,
      "watching": 3328,
      "sexual": 3329,
      "Andrew": 3330,
      "collected": 3331,
      "respondents": 3332,
      "collaboration": 3333,
      "Facebook": 3334,
      "pixels": 3335,
      "psychology": 3336,
      "British": 3337,
      "Fukush": 3338,
      "Framework": 3339,
      "Gaussian": 3340,
      "January": 3341,
      "Robo": 3342,
      "Training": 3343,
      "falls": 3344,
      "narrow": 3345,
      "sensors": 3346,
      "article": 3347,
      "courts": 3348,
      "molecules": 3349,
      "constraints": 3350,
      "explanation": 3351,
      "happen": 3352,
      "manifold": 3353,
      "feasible": 3354,
      "paralle": 3355,
      "paradig": 3356,
      "collapse": 3357,
      "facilitate": 3358,
      "distinguish": 3359,
      "April": 3360,
      "BSDE": 3361,
      "Global": 3362,
      "Nvidia": 3363,
      "NVIDIA": 3364,
      "October": 3365,
      "Photos": 3366,
      "University": 3367,
      "business": 3368,
      "branch": 3369,
      "hundred": 3370,
      "joint": 3371,
      "music": 3372,
      "plainable": 3373,
      "swarm": 3374,
      "announced": 3375,
      "return": 3376,
      "estimat": 3377,
      "strength": 3378,
      "conditions": 3379,
      "external": 3380,
      "objectives": 3381,
      "institutions": 3382,
      "infrastructure": 3383,
      "unemployment": 3384,
      "COMPAS": 3385,
      "Fukushima": 3386,
      "\":": 3387,
      "%)": 3388,
      "%.": 3389,
      "11": 3390,
      "15": 3391,
      "22": 3392,
      "25": 3393,
      "28": 3394,
      "300": 3395,
      "41": 3396,
      "43": 3397,
      "800": 3398,
      "Ato": 3399,
      "Ara": 3400,
      "Amar": 3401,
      "Award": 3402,
      "Bi": 3403,
      "Bo": 3404,
      "Bing": 3405,
      "CD": 3406,
      "CS": 3407,
      "Can": 3408,
      "Cur": 3409,
      "Cla": 3410,
      "CPUs": 3411,
      "CEO": 3412,
      "DP": 3413,
      "Des": 3414,
      "Dis": 3415,
      "Dig": 3416,
      "Dav": 3417,
      "EA": 3418,
      "Econ": 3419,
      "Evol": 3420,
      "Fun": 3421,
      "Fir": 3422,
      "From": 3423,
      "Fund": 3424,
      "Flow": 3425,
      "Fire": 3426,
      "Fold": 3427,
      "Feder": 3428,
      "GT": 3429,
      "Gu": 3430,
      "GNo": 3431,
      "GMM": 3432,
      "Hop": 3433,
      "HMM": 3434,
      "Ip": 3435,
      "ILP": 3436,
      "IEA": 3437,
      "Jour": 3438,
      "JEE": 3439,
      "Kuni": 3440,
      "Lan": 3441,
      "Labs": 3442,
      "Mon": 3443,
      "Med": 3444,
      "Mins": 3445,
      "Ng": 3446,
      "Nor": 3447,
      "National": 3448,
      "NJEE": 3449,
      "Or": 3450,
      "Over": 3451,
      "Offic": 3452,
      "Pe": 3453,
      "Po": 3454,
      "Pit": 3455,
      "RI": 3456,
      "RL": 3457,
      "RO": 3458,
      "Rosen": 3459,
      "Sa": 3460,
      "Sir": 3461,
      "Sci": 3462,
      "Soft": 3463,
      "TP": 3464,
      "Ve": 3465,
      "War": 3466,
      "Wil": 3467,
      "You": 3468,
      "ao": 3469,
      "ax": 3470,
      "aco": 3471,
      "aud": 3472,
      "aks": 3473,
      "amb": 3474,
      "aug": 3475,
      "aware": 3476,
      "amentally": 3477,
      "babil": 3478,
      "breed": 3479,
      "binding": 3480,
      "cro": 3481,
      "cast": 3482,
      "ctivity": 3483,
      "dation": 3484,
      "dens": 3485,
      "dustr": 3486,
      "ek": 3487,
      "eight": 3488,
      "eclip": 3489,
      "emulate": 3490,
      "email": 3491,
      "ft": 3492,
      "fres": 3493,
      "five": 3494,
      "fli": 3495,
      "fam": 3496,
      "ffies": 3497,
      "feder": 3498,
      "fash": 3499,
      "ga": 3500,
      "gment": 3501,
      "gence": 3502,
      "gates": 3503,
      "gain": 3504,
      "gives": 3505,
      "ior": 3506,
      "iar": 3507,
      "idel": 3508,
      "iate": 3509,
      "iations": 3510,
      "iable": 3511,
      "itions": 3512,
      "junction": 3513,
      "ki": 3514,
      "lh": 3515,
      "lab": 3516,
      "light": 3517,
      "liter": 3518,
      "labor": 3519,
      "mas": 3520,
      "mic": 3521,
      "mand": 3522,
      "mut": 3523,
      "mers": 3524,
      "mical": 3525,
      "mim": 3526,
      "mone": 3527,
      "mmit": 3528,
      "master": 3529,
      "na": 3530,
      "nth": 3531,
      "ners": 3532,
      "name": 3533,
      "ov": 3534,
      "ology": 3535,
      "otypes": 3536,
      "ping": 3537,
      "pus": 3538,
      "pap": 3539,
      "phas": 3540,
      "ror": 3541,
      "rul": 3542,
      "rise": 3543,
      "son": 3544,
      "san": 3545,
      "sor": 3546,
      "sco": 3547,
      "sus": 3548,
      "sha": 3549,
      "send": 3550,
      "scor": 3551,
      "stics": 3552,
      "swit": 3553,
      "screen": 3554,
      "ski": 3555,
      "tle": 3556,
      "tag": 3557,
      "tures": 3558,
      "tons": 3559,
      "tended": 3560,
      "uti": 3561,
      "uart": 3562,
      "vig": 3563,
      "wise": 3564,
      "yield": 3565,
      "yond": 3566,
      "zes": 3567,
      "zens": 3568,
      "}}": 3569,
      "ink": 3570,
      "inch": 3571,
      "inting": 3572,
      "independent": 3573,
      "inverse": 3574,
      "inery": 3575,
      "intract": 3576,
      "thy": 3577,
      "things": 3578,
      "ered": 3579,
      "onto": 3580,
      "onentially": 3581,
      "anim": 3582,
      "annot": 3583,
      "ancies": 3584,
      "rese": 3585,
      "repe": 3586,
      "rection": 3587,
      "react": 3588,
      "reverse": 3589,
      "enough": 3590,
      "ensure": 3591,
      "aling": 3592,
      "align": 3593,
      "always": 3594,
      "orge": 3595,
      "oratory": 3596,
      "ari": 3597,
      "arra": 3598,
      "ests": 3599,
      "till": 3600,
      "tising": 3601,
      "isations": 3602,
      "assi": 3603,
      "assump": 3604,
      "anda": 3605,
      "andon": 3606,
      "ropo": 3607,
      "defe": 3608,
      "degra": 3609,
      "dealing": 3610,
      "coin": 3611,
      "cover": 3612,
      "vec": 3613,
      "ented": 3614,
      "promo": 3615,
      "ster": 3616,
      "stal": 3617,
      "start": 3618,
      "bel": 3619,
      "belong": 3620,
      "max": 3621,
      "uts": 3622,
      "uters": 3623,
      "utter": 3624,
      "rael": 3625,
      "neu": 3626,
      "near": 3627,
      "nearly": 3628,
      "seman": 3629,
      "sectors": 3630,
      "segment": 3631,
      "cele": 3632,
      "mov": 3633,
      "move": 3634,
      "motion": 3635,
      "moves": 3636,
      "mobi": 3637,
      "motiv": 3638,
      "sue": 3639,
      "sued": 3640,
      "unlabelled": 3641,
      "untary": 3642,
      "loch": 3643,
      "load": 3644,
      "loose": 3645,
      "urs": 3646,
      "urations": 3647,
      "member": 3648,
      "members": 3649,
      "erstood": 3650,
      "tember": 3651,
      "ulate": 3652,
      "convers": 3653,
      "construct": 3654,
      "constra": 3655,
      "conjunction": 3656,
      "abuse": 3657,
      "abandon": 3658,
      "That": 3659,
      "Three": 3660,
      "accent": 3661,
      "accord": 3662,
      "sos": 3663,
      "someth": 3664,
      "2000": 3665,
      "2030": 3666,
      "2035": 3667,
      "sized": 3668,
      "sizes": 3669,
      "compos": 3670,
      "compens": 3671,
      "fiction": 3672,
      "date": 3673,
      "exha": 3674,
      "expl": 3675,
      "modelling": 3676,
      "termed": 3677,
      "worked": 3678,
      "perceive": 3679,
      "Indu": 3680,
      "Instead": 3681,
      "Industr": 3682,
      "claimed": 3683,
      "climate": 3684,
      "direction": 3685,
      "manag": 3686,
      "manner": 3687,
      "management": 3688,
      "mented": 3689,
      "verification": 3690,
      "vertising": 3691,
      "lace": 3692,
      "launder": 3693,
      "track": 3694,
      "Their": 3695,
      "irs": 3696,
      "tically": 3697,
      "tron": 3698,
      "trillion": 3699,
      "trust": 3700,
      "llers": 3701,
      "llars": 3702,
      "qual": 3703,
      "symp": 3704,
      "ively": 3705,
      "added": 3706,
      "adjust": 3707,
      "adhere": 3708,
      "advertising": 3709,
      "lie": 3710,
      "lies": 3711,
      "preced": 3712,
      "welf": 3713,
      "weak": 3714,
      "outcome": 3715,
      "steadi": 3716,
      "keep": 3717,
      "undes": 3718,
      "understood": 3719,
      "gorill": 3720,
      "gorilla": 3721,
      "imitate": 3722,
      "deepfake": 3723,
      "disinformation": 3724,
      "discern": 3725,
      "displaced": 3726,
      "hope": 3727,
      "hours": 3728,
      "uded": 3729,
      "entity": 3730,
      "entities": 3731,
      "creative": 3732,
      "creates": 3733,
      "guess": 3734,
      "guage": 3735,
      "grams": 3736,
      "gradu": 3737,
      "waste": 3738,
      "specul": 3739,
      "opposed": 3740,
      "riend": 3741,
      "taking": 3742,
      "imaging": 3743,
      "replace": 3744,
      "matter": 3745,
      "acting": 3746,
      "parts": 3747,
      "fool": 3748,
      "phen": 3749,
      "phic": 3750,
      "illusion": 3751,
      "dollars": 3752,
      "destru": 3753,
      "Dec": 3754,
      "misleading": 3755,
      "mistaken": 3756,
      "overcome": 3757,
      "acking": 3758,
      "imprec": 3759,
      "ysis": 3760,
      "blind": 3761,
      "blatt": 3762,
      "predicts": 3763,
      "knows": 3764,
      "eved": 3765,
      "mulative": 3766,
      "antages": 3767,
      "recogniz": 3768,
      "recognizing": 3769,
      "gest": 3770,
      "decentral": 3771,
      "decades": 3772,
      "Good": 3773,
      "corresponding": 3774,
      "corpus": 3775,
      "transmit": 3776,
      "tainment": 3777,
      "ministr": 3778,
      "Deepfakes": 3779,
      "derived": 3780,
      "omy": 3781,
      "proved": 3782,
      "classifies": 3783,
      "serve": 3784,
      "series": 3785,
      "servers": 3786,
      "somewhat": 3787,
      "anything": 3788,
      "analog": 3789,
      "relative": 3790,
      "curated": 3791,
      "curity": 3792,
      "ups": 3793,
      "medic": 3794,
      "mediate": 3795,
      "layered": 3796,
      "highly": 3797,
      "izen": 3798,
      "request": 3799,
      "submit": 3800,
      "subsets": 3801,
      "subsequent": 3802,
      "ipped": 3803,
      "paths": 3804,
      "painting": 3805,
      "pairs": 3806,
      "prun": 3807,
      "versat": 3808,
      "newly": 3809,
      "multivariate": 3810,
      "Stan": 3811,
      "Star": 3812,
      "Stuart": 3813,
      "etc": 3814,
      "fixed": 3815,
      "Chinch": 3816,
      "validat": 3817,
      "full": 3818,
      "nings": 3819,
      "defense": 3820,
      "exponentially": 3821,
      "structions": 3822,
      "backward": 3823,
      "background": 3824,
      "mathematic": 3825,
      "mathematically": 3826,
      "Recurrent": 3827,
      "Recommend": 3828,
      "Reuters": 3829,
      "resulted": 3830,
      "heuristic": 3831,
      "voluntary": 3832,
      "specified": 3833,
      "variants": 3834,
      "mention": 3835,
      "engines": 3836,
      "items": 3837,
      "ously": 3838,
      "1990": 3839,
      "1995": 3840,
      "1998": 3841,
      "cumulative": 3842,
      "1985": 3843,
      "1988": 3844,
      "designers": 3845,
      "shif": 3846,
      "demand": 3847,
      "introduction": 3848,
      "factory": 3849,
      "Machinery": 3850,
      "biology": 3851,
      "operates": 3852,
      "argue": 3853,
      "arguments": 3854,
      "experienced": 3855,
      "LLM": 3856,
      "singular": 3857,
      "performs": 3858,
      "apply": 3859,
      "ranging": 3860,
      "workshop": 3861,
      "deno": 3862,
      "handwritten": 3863,
      "propaganda": 3864,
      "advantages": 3865,
      "Process": 3866,
      "Prolog": 3867,
      "Project": 3868,
      "Probabil": 3869,
      "affect": 3870,
      "bert": 3871,
      "temporal": 3872,
      "transformations": 3873,
      "New": 3874,
      "attacks": 3875,
      "leaders": 3876,
      "George": 3877,
      "grid": 3878,
      "robotic": 3879,
      "chances": 3880,
      "changing": 3881,
      "sequently": 3882,
      "whose": 3883,
      "descrip": 3884,
      "currently": 3885,
      "estimate": 3886,
      "2006": 3887,
      "approximator": 3888,
      "depending": 3889,
      "dependencies": 3890,
      "identifying": 3891,
      "building": 3892,
      "Netfli": 3893,
      "lingu": 3894,
      "Conference": 3895,
      "Convolutional": 3896,
      "autonomy": 3897,
      "equipped": 3898,
      "holds": 3899,
      "views": 3900,
      "wrong": 3901,
      "believed": 3902,
      "definitions": 3903,
      "AlphaZero": 3904,
      "AlphaEvol": 3905,
      "AlphaFold": 3906,
      "longer": 3907,
      "combination": 3908,
      "governance": 3909,
      "hiko": 3910,
      "attempting": 3911,
      "ensemble": 3912,
      "truth": 3913,
      "physics": 3914,
      "Explainable": 3915,
      "Super": 3916,
      "erry": 3917,
      "encode": 3918,
      "encoding": 3919,
      "synthesis": 3920,
      "improving": 3921,
      "translated": 3922,
      "autonomously": 3923,
      "steps": 3924,
      "containing": 3925,
      "activity": 3926,
      "1971": 3927,
      "LSTMs": 3928,
      "easily": 3929,
      "easier": 3930,
      "store": 3931,
      "simulated": 3932,
      "demonstrate": 3933,
      "influences": 3934,
      "filter": 3935,
      "filtering": 3936,
      "harms": 3937,
      "unex": 3938,
      "involve": 3939,
      "involved": 3940,
      "counter": 3941,
      "iteratively": 3942,
      "suppor": 3943,
      "policing": 3944,
      "divided": 3945,
      "topic": 3946,
      "costs": 3947,
      "sources": 3948,
      "ditionally": 3949,
      "places": 3950,
      "focused": 3951,
      "focusing": 3952,
      "beliefs": 3953,
      "Researchers": 3954,
      "MLP": 3955,
      "PhD": 3956,
      "presence": 3957,
      "sentence": 3958,
      "deviations": 3959,
      "conflic": 3960,
      "simply": 3961,
      "industrial": 3962,
      "regulating": 3963,
      "principle": 3964,
      "majority": 3965,
      "MAT": 3966,
      "journal": 3967,
      "invested": 3968,
      "accelerate": 3969,
      "accelerator": 3970,
      "components": 3971,
      "explosion": 3972,
      "explored": 3973,
      "connectionist": 3974,
      "continued": 3975,
      "diagnostics": 3976,
      "Adv": 3977,
      "Russian": 3978,
      "digital": 3979,
      "freely": 3980,
      "plausible": 3981,
      "restrictions": 3982,
      "collar": 3983,
      "contras": 3984,
      "exists": 3985,
      "automatic": 3986,
      "professions": 3987,
      "characteristic": 3988,
      "ImageNet": 3989,
      "individuals": 3990,
      "practice": 3991,
      "receives": 3992,
      "enhancements": 3993,
      "rarely": 3994,
      "necessarily": 3995,
      "suggests": 3996,
      "compositional": 3997,
      "databases": 3998,
      "manipulate": 3999,
      "communic": 4000,
      "community": 4001,
      "communities": 4002,
      "minimise": 4003,
      "failed": 4004,
      "assigns": 4005,
      "Computational": 4006,
      "dynamics": 4007,
      "category": 4008,
      "Transform": 4009,
      "Translate": 4010,
      "candidates": 4011,
      "explicitly": 4012,
      "Park": 4013,
      "SVMs": 4014,
      "Web": 4015,
      "mitigate": 4016,
      "sentiment": 4017,
      "sentience": 4018,
      "chemical": 4019,
      "expect": 4020,
      "discriminative": 4021,
      "classifying": 4022,
      "scientific": 4023,
      "AlexNet": 4024,
      "70B": 4025,
      "Because": 4026,
      "Math": 4027,
      "break": 4028,
      "larger": 4029,
      "largest": 4030,
      "pictures": 4031,
      "photo": 4032,
      "recti": 4033,
      "offering": 4034,
      "entered": 4035,
      "entertainment": 4036,
      "progress": 4037,
      "studies": 4038,
      "displaystyle": 4039,
      "credit": 4040,
      "guided": 4041,
      "guidance": 4042,
      "imposed": 4043,
      "regarding": 4044,
      "regularization": 4045,
      "Regul": 4046,
      "benchmarks": 4047,
      "Similar": 4048,
      "incorporate": 4049,
      "incorporated": 4050,
      "professional": 4051,
      "After": 4052,
      "Asimov": 4053,
      "Feature": 4054,
      "Grok": 4055,
      "Group": 4056,
      "Graph": 4057,
      "Law": 4058,
      "World": 4059,
      "emerging": 4060,
      "ibility": 4061,
      "sensitive": 4062,
      "sensitivity": 4063,
      "invest": 4064,
      "inductive": 4065,
      "reconstruct": 4066,
      "reconstruction": 4067,
      "replacing": 4068,
      "leverage": 4069,
      "assume": 4070,
      "mechanism": 4071,
      "contributed": 4072,
      "acceptable": 4073,
      "calculated": 4074,
      "substantial": 4075,
      "substantially": 4076,
      "defendants": 4077,
      "autoencoder": 4078,
      "autoencoders": 4079,
      "attackers": 4080,
      "investig": 4081,
      "investigate": 4082,
      "implicitly": 4083,
      "hypothesized": 4084,
      "evolutionary": 4085,
      "Classi": 4086,
      "September": 4087,
      "omists": 4088,
      "trendline": 4089,
      "vanishing": 4090,
      "innovation": 4091,
      "inherently": 4092,
      "annual": 4093,
      "stakes": 4094,
      "modal": 4095,
      "texts": 4096,
      "convincing": 4097,
      "weapons": 4098,
      "evacuation": 4099,
      "validation": 4100,
      "interesting": 4101,
      "surpassing": 4102,
      "closely": 4103,
      "Convention": 4104,
      "ordinary": 4105,
      "preserve": 4106,
      "circuits": 4107,
      "pioneer": 4108,
      "vulnerable": 4109,
      "disciplines": 4110,
      "21st": 4111,
      "Critics": 4112,
      "Horn": 4113,
      "IBM": 4114,
      "Israel": 4115,
      "Samuel": 4116,
      "average": 4117,
      "citations": 4118,
      "piece": 4119,
      "sales": 4120,
      "smart": 4121,
      "alphabet": 4122,
      "champion": 4123,
      "chips": 4124,
      "degree": 4125,
      "storage": 4126,
      "begun": 4127,
      "suitable": 4128,
      "consists": 4129,
      "claration": 4130,
      "directed": 4131,
      "precise": 4132,
      "prevalence": 4133,
      "discrete": 4134,
      "highlighted": 4135,
      "capacity": 4136,
      "Analysis": 4137,
      "cruffies": 4138,
      "forecasts": 4139,
      "equivalent": 4140,
      "historical": 4141,
      "Philosopher": 4142,
      "configurations": 4143,
      "challenging": 4144,
      "societal": 4145,
      "Technology": 4146,
      "progressively": 4147,
      "Robot": 4148,
      "parallel": 4149,
      "estimates": 4150,
      "Atom": 4151,
      "Amari": 4152,
      "Claude": 4153,
      "Despite": 4154,
      "Digital": 4155,
      "David": 4156,
      "FunSearch": 4157,
      "Firefly": 4158,
      "GNoME": 4159,
      "Hopfield": 4160,
      "Ipsos": 4161,
      "Journal": 4162,
      "Kunihiko": 4163,
      "Language": 4164,
      "Minsky": 4165,
      "Norvig": 4166,
      "Office": 4167,
      "Rosenblatt": 4168,
      "Veo": 4169,
      "ambig": 4170,
      "augmented": 4171,
      "density": 4172,
      "eclipsed": 4173,
      "fresh": 4174,
      "fashion": 4175,
      "papers": 4176,
      "phase": 4177,
      "scoring": 4178,
      "switch": 4179,
      "utili": 4180,
      "assumptions": 4181,
      "degradation": 4182,
      "mobile": 4183,
      "constraint": 4184,
      "accents": 4185,
      "accordance": 4186,
      "something": 4187,
      "exploratory": 4188,
      "Inductive": 4189,
      "welfare": 4190,
      "steadily": 4191,
      "gorillas": 4192,
      "mistakenly": 4193,
      "Chinchilla": 4194,
      "validated": 4195,
      "Recommendation": 4196,
      "Probabilistic": 4197,
      "Netflix": 4198,
      "AlphaEvolve": 4199,
      "%),": 4200,
      "(.)": 4201,
      ",\"": 4202,
      "1000": 4203,
      "24": 4204,
      "26": 4205,
      "32": 4206,
      "37": 4207,
      "40": 4208,
      "47": 4209,
      "49": 4210,
      "57": 4211,
      "500": 4212,
      "61": 4213,
      "65": 4214,
      "77": 4215,
      "7B": 4216,
      "AA": 4217,
      "AC": 4218,
      "AT": 4219,
      "AU": 4220,
      "Ali": 4221,
      "Ado": 4222,
      "Bis": 4223,
      "Back": 4224,
      "Beng": 4225,
      "Both": 4226,
      "BML": 4227,
      "CF": 4228,
      "CN": 4229,
      "CT": 4230,
      "Cra": 4231,
      "Cul": 4232,
      "Cha": 4233,
      "Col": 4234,
      "Cho": 4235,
      "Cour": 4236,
      "CLI": 4237,
      "DD": 4238,
      "Dar": 4239,
      "Dys": 4240,
      "Day": 4241,
      "Dick": 4242,
      "Dou": 4243,
      "ER": 4244,
      "Ef": 4245,
      "El": 4246,
      "Eth": 4247,
      "Ele": 4248,
      "Elect": 4249,
      "Even": 4250,
      "Evalu": 4251,
      "Embed": 4252,
      "ELI": 4253,
      "ECD": 4254,
      "FP": 4255,
      "Fut": 4256,
      "FNN": 4257,
      "Further": 4258,
      "Finding": 4259,
      "GG": 4260,
      "Git": 4261,
      "Game": 4262,
      "Gart": 4263,
      "Gran": 4264,
      "Gord": 4265,
      "Gabor": 4266,
      "HA": 4267,
      "HF": 4268,
      "Her": 4269,
      "Hen": 4270,
      "Har": 4271,
      "His": 4272,
      "Hass": 4273,
      "Hidden": 4274,
      "II": 4275,
      "IP": 4276,
      "Im": 4277,
      "Iv": 4278,
      "Ian": 4279,
      "Imp": 4280,
      "Its": 4281,
      "INNs": 4282,
      "Ising": 4283,
      "Je": 4284,
      "Jon": 4285,
      "Kur": 4286,
      "Kim": 4287,
      "Key": 4288,
      "KDD": 4289,
      "LT": 4290,
      "LU": 4291,
      "LZ": 4292,
      "Lo": 4293,
      "Lu": 4294,
      "Lar": 4295,
      "Long": 4296,
      "Log": 4297,
      "Los": 4298,
      "Labor": 4299,
      "Mat": 4300,
      "Mic": 4301,
      "Mus": 4302,
      "Mich": 4303,
      "Meas": 4304,
      "Mora": 4305,
      "MDP": 4306,
      "NR": 4307,
      "Nil": 4308,
      "Nature": 4309,
      "NLP": 4310,
      "Os": 4311,
      "OECD": 4312,
      "PA": 4313,
      "Pl": 4314,
      "Pen": 4315,
      "Pra": 4316,
      "Pac": 4317,
      "Publ": 4318,
      "Pear": 4319,
      "PCA": 4320,
      "Plat": 4321,
      "PDE": 4322,
      "PINNs": 4323,
      "Ra": 4324,
      "Ru": 4325,
      "Red": 4326,
      "Ris": 4327,
      "Ray": 4328,
      "Rights": 4329,
      "Random": 4330,
      "RAG": 4331,
      "RBML": 4332,
      "RPA": 4333,
      "So": 4334,
      "Ser": 4335,
      "Sing": 4336,
      "Sun": 4337,
      "Sur": 4338,
      "Ste": 4339,
      "Sign": 4340,
      "Sup": 4341,
      "Sear": 4342,
      "Special": 4343,
      "Small": 4344,
      "Saudi": 4345,
      "Sora": 4346,
      "SRI": 4347,
      "Tu": 4348,
      "Tim": 4349,
      "Two": 4350,
      "Tom": 4351,
      "Tai": 4352,
      "Twit": 4353,
      "Turis": 4354,
      "UN": 4355,
      "UT": 4356,
      "Vo": 4357,
      "Ver": 4358,
      "Very": 4359,
      "VGG": 4360,
      "Wa": 4361,
      "Wal": 4362,
      "With": 4363,
      "Wall": 4364,
      "Word": 4365,
      "Wats": 4366,
      "Yor": 4367,
      "Yos": 4368,
      "ZA": 4369,
      "Zh": 4370,
      "\\{\\": 4371,
      "aper": 4372,
      "athan": 4373,
      "aves": 4374,
      "award": 4375,
      "bt": 4376,
      "bin": 4377,
      "bal": 4378,
      "blo": 4379,
      "big": 4380,
      "bations": 4381,
      "bri": 4382,
      "bau": 4383,
      "bates": 4384,
      "base": 4385,
      "bited": 4386,
      "bread": 4387,
      "batch": 4388,
      "bao": 4389,
      "cab": 4390,
      "cere": 4391,
      "cam": 4392,
      "cris": 4393,
      "cracy": 4394,
      "dit": 4395,
      "dys": 4396,
      "dden": 4397,
      "dropo": 4398,
      "ell": 4399,
      "eficial": 4400,
      "eons": 4401,
      "ecu": 4402,
      "emit": 4403,
      "election": 4404,
      "eously": 4405,
      "flo": 4406,
      "fab": 4407,
      "fare": 4408,
      "fif": 4409,
      "flu": 4410,
      "fense": 4411,
      "fron": 4412,
      "fuzz": 4413,
      "friend": 4414,
      "gre": 4415,
      "gent": 4416,
      "gments": 4417,
      "gran": 4418,
      "hal": 4419,
      "hir": 4420,
      "hence": 4421,
      "hors": 4422,
      "hensive": 4423,
      "hrase": 4424,
      "ik": 4425,
      "iy": 4426,
      "ira": 4427,
      "ific": 4428,
      "iors": 4429,
      "juris": 4430,
      "ktop": 4431,
      "ls": 4432,
      "llow": 4433,
      "list": 4434,
      "lines": 4435,
      "llect": 4436,
      "my": 4437,
      "mes": 4438,
      "mir": 4439,
      "mass": 4440,
      "mune": 4441,
      "ned": 4442,
      "ox": 4443,
      "oes": 4444,
      "ove": 4445,
      "oms": 4446,
      "ocor": 4447,
      "pan": 4448,
      "pig": 4449,
      "pies": 4450,
      "page": 4451,
      "pons": 4452,
      "players": 4453,
      "pared": 4454,
      "puzz": 4455,
      "pneu": 4456,
      "rm": 4457,
      "rat": 4458,
      "rig": 4459,
      "rid": 4460,
      "rating": 4461,
      "sat": 4462,
      "sle": 4463,
      "smo": 4464,
      "sil": 4465,
      "sla": 4466,
      "slow": 4467,
      "song": 4468,
      "spat": 4469,
      "sca": 4470,
      "spread": 4471,
      "scra": 4472,
      "scruffies": 4473,
      "tw": 4474,
      "tin": 4475,
      "tan": 4476,
      "tative": 4477,
      "tled": 4478,
      "txt": 4479,
      "tance": 4480,
      "tability": 4481,
      "tling": 4482,
      "uth": 4483,
      "ues": 4484,
      "ump": 4485,
      "umb": 4486,
      "vent": 4487,
      "vive": 4488,
      "vag": 4489,
      "vices": 4490,
      "wro": 4491,
      "wking": 4492,
      "winter": 4493,
      "xing": 4494,
      "yright": 4495,
      "ystal": 4496,
      "zer": 4497,
      "ino": 4498,
      "iny": 4499,
      "inction": 4500,
      "infer": 4501,
      "income": 4502,
      "inven": 4503,
      "inorgan": 4504,
      "inions": 4505,
      "inaccurate": 4506,
      "insufficient": 4507,
      "thal": 4508,
      "thur": 4509,
      "thrm": 4510,
      "era": 4511,
      "ert": 4512,
      "atus": 4513,
      "atom": 4514,
      "attri": 4515,
      "atoes": 4516,
      "ony": 4517,
      "ondu": 4518,
      "onions": 4519,
      "ongoing": 4520,
      "ante": 4521,
      "ansi": 4522,
      "anta": 4523,
      "ancing": 4524,
      "rev": 4525,
      "reve": 4526,
      "reput": 4527,
      "reci": 4528,
      "recor": 4529,
      "retrained": 4530,
      "reject": 4531,
      "refin": 4532,
      "reactions": 4533,
      "reopen": 4534,
      "revolution": 4535,
      "reiter": 4536,
      "record": 4537,
      "reams": 4538,
      "rehensive": 4539,
      "reinven": 4540,
      "ensu": 4541,
      "ension": 4542,
      "enko": 4543,
      "alge": 4544,
      "altern": 4545,
      "altered": 4546,
      "ority": 4547,
      "orates": 4548,
      "orary": 4549,
      "orphic": 4550,
      "educ": 4551,
      "theless": 4552,
      "arms": 4553,
      "ardi": 4554,
      "aries": 4555,
      "arrange": 4556,
      "arante": 4557,
      "tizens": 4558,
      "ises": 4559,
      "isms": 4560,
      "isted": 4561,
      "lem": 4562,
      "lege": 4563,
      "leaves": 4564,
      "lethal": 4565,
      "aspe": 4566,
      "asking": 4567,
      "assumption": 4568,
      "offic": 4569,
      "official": 4570,
      "ica": 4571,
      "ico": 4572,
      "icated": 4573,
      "toge": 4574,
      "toms": 4575,
      "tored": 4576,
      "took": 4577,
      "total": 4578,
      "anded": 4579,
      "room": 4580,
      "rooted": 4581,
      "charge": 4582,
      "child": 4583,
      "chreiter": 4584,
      "debates": 4585,
      "coal": 4586,
      "covers": 4587,
      "covery": 4588,
      "covari": 4589,
      "coord": 4590,
      "copies": 4591,
      "usal": 4592,
      "ustic": 4593,
      "ustive": 4594,
      "usual": 4595,
      "ites": 4596,
      "itative": 4597,
      "entang": 4598,
      "proach": 4599,
      "project": 4600,
      "propose": 4601,
      "proceed": 4602,
      "stro": 4603,
      "stere": 4604,
      "stable": 4605,
      "story": 4606,
      "stages": 4607,
      "stances": 4608,
      "status": 4609,
      "streams": 4610,
      "mpster": 4611,
      "bell": 4612,
      "beyond": 4613,
      "mage": 4614,
      "mathrm": 4615,
      "rad": 4616,
      "raising": 4617,
      "neare": 4618,
      "neigh": 4619,
      "neither": 4620,
      "neocor": 4621,
      "sey": 4622,
      "security": 4623,
      "tionally": 4624,
      "ford": 4625,
      "forget": 4626,
      "modi": 4627,
      "mology": 4628,
      "mocracy": 4629,
      "sum": 4630,
      "suasion": 4631,
      "sudden": 4632,
      "unif": 4633,
      "unconscious": 4634,
      "unobserved": 4635,
      "unlabeled": 4636,
      "unzip": 4637,
      "uncomfortable": 4638,
      "unintended": 4639,
      "unreliable": 4640,
      "unpreced": 4641,
      "lost": 4642,
      "loys": 4643,
      "urons": 4644,
      "urism": 4645,
      "igan": 4646,
      "igene": 4647,
      "met": 4648,
      "meta": 4649,
      "melh": 4650,
      "erson": 4651,
      "tection": 4652,
      "team": 4653,
      "teams": 4654,
      "ull": 4655,
      "ults": 4656,
      "ulations": 4657,
      "ulty": 4658,
      "ultim": 4659,
      "ulary": 4660,
      "condu": 4661,
      "confer": 4662,
      "confusion": 4663,
      "constit": 4664,
      "consequence": 4665,
      "constitute": 4666,
      "consequences": 4667,
      "constructions": 4668,
      "abis": 4669,
      "above": 4670,
      "Through": 4671,
      "ilia": 4672,
      "iliar": 4673,
      "resid": 4674,
      "resist": 4675,
      "respons": 4676,
      "accomp": 4677,
      "acial": 4678,
      "worth": 4679,
      "node": 4680,
      "nograph": 4681,
      "msky": 4682,
      "compact": 4683,
      "compris": 4684,
      "complic": 4685,
      "compose": 4686,
      "compound": 4687,
      "comprehensive": 4688,
      "fications": 4689,
      "ficacy": 4690,
      "delay": 4691,
      "exclus": 4692,
      "hael": 4693,
      "terror": 4694,
      "whites": 4695,
      "workload": 4696,
      "percent": 4697,
      "pertur": 4698,
      "perfect": 4699,
      "perparameter": 4700,
      "persuasion": 4701,
      "Inc": 4702,
      "Inference": 4703,
      "India": 4704,
      "cler": 4705,
      "clic": 4706,
      "claims": 4707,
      "post": 4708,
      "diam": 4709,
      "dilem": 4710,
      "epigene": 4711,
      "manual": 4712,
      "mentary": 4713,
      "peer": 4714,
      "pective": 4715,
      "pected": 4716,
      "verif": 4717,
      "traits": 4718,
      "travers": 4719,
      "travel": 4720,
      "traffic": 4721,
      "essential": 4722,
      "essentially": 4723,
      "Theory": 4724,
      "ticularly": 4725,
      "tras": 4726,
      "transi": 4727,
      "llation": 4728,
      "quate": 4729,
      "quity": 4730,
      "quick": 4731,
      "ided": 4732,
      "idently": 4733,
      "trains": 4734,
      "trainer": 4735,
      "administr": 4736,
      "atedly": 4737,
      "oling": 4738,
      "liv": 4739,
      "life": 4740,
      "liest": 4741,
      "lives": 4742,
      "lihood": 4743,
      "pretraining": 4744,
      "predefined": 4745,
      "prepared": 4746,
      "romorphic": 4747,
      "wear": 4748,
      "outperforming": 4749,
      "outside": 4750,
      "stellation": 4751,
      "formed": 4752,
      "formation": 4753,
      "formul": 4754,
      "ighth": 4755,
      "fell": 4756,
      "fety": 4757,
      "fellow": 4758,
      "agues": 4759,
      "ief": 4760,
      "unding": 4761,
      "undancies": 4762,
      "immune": 4763,
      "disap": 4764,
      "dispar": 4765,
      "disclo": 4766,
      "disorder": 4767,
      "discrim": 4768,
      "disagree": 4769,
      "disagreed": 4770,
      "distill": 4771,
      "disentang": 4772,
      "systematic": 4773,
      "cific": 4774,
      "citizens": 4775,
      "entiable": 4776,
      "entirely": 4777,
      "plat": 4778,
      "plus": 4779,
      "computed": 4780,
      "hua": 4781,
      "gue": 4782,
      "guards": 4783,
      "guidel": 4784,
      "guarante": 4785,
      "commission": 4786,
      "gram": 4787,
      "grading": 4788,
      "intellect": 4789,
      "bour": 4790,
      "boot": 4791,
      "books": 4792,
      "opard": 4793,
      "tax": 4794,
      "tail": 4795,
      "republ": 4796,
      "artists": 4797,
      "artistic": 4798,
      "ichi": 4799,
      "mature": 4800,
      "logistics": 4801,
      "actual": 4802,
      "ends": 4803,
      "parap": 4804,
      "dictions": 4805,
      "phishing": 4806,
      "phrase": 4807,
      "illustr": 4808,
      "dog": 4809,
      "doing": 4810,
      "doubl": 4811,
      "docu": 4812,
      "desktop": 4813,
      "researched": 4814,
      "problematic": 4815,
      "processors": 4816,
      "develops": 4817,
      "Demis": 4818,
      "Declaration": 4819,
      "Defense": 4820,
      "Dempster": 4821,
      "Democracy": 4822,
      "ami": 4823,
      "misuse": 4824,
      "objective": 4825,
      "obliv": 4826,
      "overall": 4827,
      "overlap": 4828,
      "effor": 4829,
      "efficacy": 4830,
      "ysics": 4831,
      "blacks": 4832,
      "lest": 4833,
      "ught": 4834,
      "evil": 4835,
      "evasion": 4836,
      "antly": 4837,
      "ideas": 4838,
      "intu": 4839,
      "ternatively": 4840,
      "authen": 4841,
      "corpor": 4842,
      "correspond": 4843,
      "transist": 4844,
      "transcri": 4845,
      "transaction": 4846,
      "taining": 4847,
      "command": 4848,
      "representational": 4849,
      "minority": 4850,
      "DeepSe": 4851,
      "DeepDream": 4852,
      "bute": 4853,
      "xture": 4854,
      "proven": 4855,
      "provably": 4856,
      "server": 4857,
      "superhuman": 4858,
      "supervis": 4859,
      "superintelligent": 4860,
      "superior": 4861,
      "else": 4862,
      "algorithmically": 4863,
      "famous": 4864,
      "margin": 4865,
      "likelihood": 4866,
      "curios": 4867,
      "updat": 4868,
      "\"...": 4869,
      "cycles": 4870,
      "cycle": 4871,
      "centroid": 4872,
      "ightforward": 4873,
      "izer": 4874,
      "reet": 4875,
      "requests": 4876,
      "submissions": 4877,
      "subjec": 4878,
      "subjective": 4879,
      "subtle": 4880,
      "patch": 4881,
      "path": 4882,
      "paid": 4883,
      "prim": 4884,
      "prone": 4885,
      "publish": 4886,
      "publishing": 4887,
      "multip": 4888,
      "multiplic": 4889,
      "multidimensional": 4890,
      "multimodal": 4891,
      "applicants": 4892,
      "questions": 4893,
      "Stand": 4894,
      "Statistic": 4895,
      "Street": 4896,
      "fiers": 4897,
      "fires": 4898,
      "incremental": 4899,
      "incrementally": 4900,
      "rent": 4901,
      "rench": 4902,
      "Char": 4903,
      "calling": 4904,
      "functional": 4905,
      "interactions": 4906,
      "interview": 4907,
      "interacting": 4908,
      "intermediate": 4909,
      "crip": 4910,
      "roughly": 4911,
      "asters": 4912,
      "expensive": 4913,
      "expanded": 4914,
      "wherein": 4915,
      "inson": 4916,
      "insights": 4917,
      "Reas": 4918,
      "Recognition": 4919,
      "ReLU": 4920,
      "Unsupervised": 4921,
      "bia": 4922,
      "throughout": 4923,
      "probably": 4924,
      "generalised": 4925,
      "generalization": 4926,
      "generalize": 4927,
      "identity": 4928,
      "varied": 4929,
      "variation": 4930,
      "ength": 4931,
      "engage": 4932,
      "detected": 4933,
      "item": 4934,
      "differing": 4935,
      "differentiable": 4936,
      "Alternatively": 4937,
      "potatoes": 4938,
      "1999": 4939,
      "capability": 4940,
      "capture": 4941,
      "reasons": 4942,
      "1981": 4943,
      "1987": 4944,
      "1989": 4945,
      "designated": 4946,
      "specificity": 4947,
      "earliest": 4948,
      "ponents": 4949,
      "share": 4950,
      "sharing": 4951,
      "connectivity": 4952,
      "scalability": 4953,
      "analysed": 4954,
      "analyses": 4955,
      "GPTZero": 4956,
      "ganization": 4957,
      "operation": 4958,
      "operational": 4959,
      "showing": 4960,
      "particip": 4961,
      "experiences": 4962,
      "electorates": 4963,
      "pages": 4964,
      "signs": 4965,
      "signed": 4966,
      "mbolic": 4967,
      "Arthur": 4968,
      "Hochreiter": 4969,
      "reduces": 4970,
      "color": 4971,
      "statisticians": 4972,
      "survive": 4973,
      "responsible": 4974,
      "discovers": 4975,
      "successes": 4976,
      "crut": 4977,
      "criter": 4978,
      "crystal": 4979,
      "handling": 4980,
      "advance": 4981,
      "advice": 4982,
      "advancements": 4983,
      "advanta": 4984,
      "dimensions": 4985,
      "Prog": 4986,
      "Proof": 4987,
      "ProPubl": 4988,
      "Protection": 4989,
      "Proponents": 4990,
      "closed": 4991,
      "pped": 4992,
      "atories": 4993,
      "redundancies": 4994,
      "temporary": 4995,
      "developmental": 4996,
      "transformative": 4997,
      "consideration": 4998,
      "Newell": 4999
    },
    "merges": [
      [
        "i",
        "n"
      ],
      [
        "t",
        "h"
      ],
      [
        "e",
        "r"
      ],
      [
        "a",
        "t"
      ],
      [
        "o",
        "n"
      ],
      [
        "a",
        "n"
      ],
      [
        "r",
        "e"
      ],
      [
        "e",
        "n"
      ],
      [
        "a",
        "l"
      ],
      [
        "o",
        "r"
      ],
      [
        "e",
        "d"
      ],
      [
        "th",
        "e"
      ],
      [
        "a",
        "r"
      ],
      [
        "in",
        "g"
      ],
      [
        "e",
        "s"
      ],
      [
        "t",
        "i"
      ],
      [
        "i",
        "s"
      ],
      [
        "l",
        "e"
      ],
      [
        "a",
        "s"
      ],
      [
        "o",
        "f"
      ],
      [
        "i",
        "c"
      ],
      [
        "t",
        "o"
      ],
      [
        "an",
        "d"
      ],
      [
        "r",
        "o"
      ],
      [
        "c",
        "h"
      ],
      [
        "d",
        "e"
      ],
      [
        "i",
        "on"
      ],
      [
        "c",
        "o"
      ],
      [
        "u",
        "s"
      ],
      [
        "v",
        "e"
      ],
      [
        "i",
        "t"
      ],
      [
        "at",
        "ion"
      ],
      [
        "en",
        "t"
      ],
      [
        "p",
        "ro"
      ],
      [
        "s",
        "t"
      ],
      [
        "l",
        "y"
      ],
      [
        "m",
        "p"
      ],
      [
        "b",
        "e"
      ],
      [
        "m",
        "a"
      ],
      [
        "u",
        "t"
      ],
      [
        "r",
        "a"
      ],
      [
        "n",
        "e"
      ],
      [
        "s",
        "e"
      ],
      [
        "ti",
        "on"
      ],
      [
        "f",
        "or"
      ],
      [
        "c",
        "e"
      ],
      [
        "m",
        "o"
      ],
      [
        "s",
        "u"
      ],
      [
        "th",
        "at"
      ],
      [
        "le",
        "ar"
      ],
      [
        "u",
        "n"
      ],
      [
        "l",
        "o"
      ],
      [
        "lear",
        "n"
      ],
      [
        "A",
        "I"
      ],
      [
        "u",
        "r"
      ],
      [
        "c",
        "t"
      ],
      [
        "i",
        "g"
      ],
      [
        "m",
        "e"
      ],
      [
        "i",
        "th"
      ],
      [
        "er",
        "s"
      ],
      [
        "t",
        "e"
      ],
      [
        "u",
        "l"
      ],
      [
        "c",
        "on"
      ],
      [
        "learn",
        "ing"
      ],
      [
        "a",
        "b"
      ],
      [
        "T",
        "h"
      ],
      [
        "i",
        "l"
      ],
      [
        "g",
        "e"
      ],
      [
        "re",
        "s"
      ],
      [
        "a",
        "re"
      ],
      [
        "a",
        "c"
      ],
      [
        "w",
        "or"
      ],
      [
        "n",
        "o"
      ],
      [
        "s",
        "o"
      ],
      [
        "2",
        "0"
      ],
      [
        "m",
        "s"
      ],
      [
        "s",
        "i"
      ],
      [
        "co",
        "mp"
      ],
      [
        "b",
        "y"
      ],
      [
        "f",
        "ic"
      ],
      [
        "en",
        "er"
      ],
      [
        "de",
        "l"
      ],
      [
        "in",
        "e"
      ],
      [
        "d",
        "at"
      ],
      [
        "e",
        "x"
      ],
      [
        "h",
        "a"
      ],
      [
        "mo",
        "del"
      ],
      [
        "t",
        "er"
      ],
      [
        "w",
        "h"
      ],
      [
        "wor",
        "k"
      ],
      [
        "p",
        "er"
      ],
      [
        "I",
        "n"
      ],
      [
        "c",
        "l"
      ],
      [
        "p",
        "o"
      ],
      [
        "at",
        "e"
      ],
      [
        "w",
        "ith"
      ],
      [
        "d",
        "i"
      ],
      [
        "e",
        "p"
      ],
      [
        "m",
        "an"
      ],
      [
        "m",
        "ent"
      ],
      [
        "p",
        "e"
      ],
      [
        "v",
        "er"
      ],
      [
        "l",
        "a"
      ],
      [
        "t",
        "s"
      ],
      [
        "t",
        "ra"
      ],
      [
        "g",
        "ener"
      ],
      [
        "dat",
        "a"
      ],
      [
        "es",
        "s"
      ],
      [
        "a",
        "p"
      ],
      [
        "i",
        "al"
      ],
      [
        "Th",
        "e"
      ],
      [
        "i",
        "r"
      ],
      [
        "ti",
        "c"
      ],
      [
        "c",
        "an"
      ],
      [
        "t",
        "r"
      ],
      [
        "l",
        "l"
      ],
      [
        "q",
        "u"
      ],
      [
        "ne",
        "t"
      ],
      [
        "s",
        "y"
      ],
      [
        "ar",
        "ch"
      ],
      [
        "i",
        "d"
      ],
      [
        "tra",
        "in"
      ],
      [
        "i",
        "ve"
      ],
      [
        "en",
        "ce"
      ],
      [
        "a",
        "d"
      ],
      [
        "net",
        "work"
      ],
      [
        "ma",
        "ch"
      ],
      [
        "at",
        "ed"
      ],
      [
        "o",
        "l"
      ],
      [
        "it",
        "y"
      ],
      [
        "l",
        "i"
      ],
      [
        "p",
        "re"
      ],
      [
        "ro",
        "m"
      ],
      [
        "th",
        "er"
      ],
      [
        "ation",
        "s"
      ],
      [
        "at",
        "ive"
      ],
      [
        "w",
        "e"
      ],
      [
        "ic",
        "al"
      ],
      [
        "f",
        "rom"
      ],
      [
        "su",
        "ch"
      ],
      [
        "d",
        "u"
      ],
      [
        "n",
        "i"
      ],
      [
        "us",
        "ed"
      ],
      [
        "mach",
        "ine"
      ],
      [
        "o",
        "ut"
      ],
      [
        "st",
        "e"
      ],
      [
        "c",
        "tion"
      ],
      [
        "k",
        "e"
      ],
      [
        "ne",
        "ur"
      ],
      [
        "ha",
        "ve"
      ],
      [
        "for",
        "m"
      ],
      [
        "model",
        "s"
      ],
      [
        "ig",
        "h"
      ],
      [
        "f",
        "e"
      ],
      [
        "a",
        "g"
      ],
      [
        "i",
        "e"
      ],
      [
        "un",
        "d"
      ],
      [
        "er",
        "e"
      ],
      [
        "g",
        "or"
      ],
      [
        "i",
        "m"
      ],
      [
        "de",
        "ep"
      ],
      [
        "a",
        "ch"
      ],
      [
        "b",
        "le"
      ],
      [
        "d",
        "is"
      ],
      [
        "sy",
        "ste"
      ],
      [
        "c",
        "ess"
      ],
      [
        "h",
        "o"
      ],
      [
        "p",
        "ut"
      ],
      [
        "u",
        "d"
      ],
      [
        "c",
        "i"
      ],
      [
        "se",
        "arch"
      ],
      [
        "o",
        "d"
      ],
      [
        "en",
        "ti"
      ],
      [
        "1",
        "9"
      ],
      [
        "p",
        "l"
      ],
      [
        "la",
        "y"
      ],
      [
        "gor",
        "ith"
      ],
      [
        "al",
        "gorith"
      ],
      [
        "comp",
        "ut"
      ],
      [
        "no",
        "t"
      ],
      [
        "h",
        "u"
      ],
      [
        "us",
        "e"
      ],
      [
        "neur",
        "al"
      ],
      [
        "c",
        "re"
      ],
      [
        "g",
        "u"
      ],
      [
        "co",
        "m"
      ],
      [
        "20",
        "2"
      ],
      [
        "g",
        "ra"
      ],
      [
        "w",
        "as"
      ],
      [
        "al",
        "l"
      ],
      [
        "in",
        "te"
      ],
      [
        "b",
        "o"
      ],
      [
        "s",
        "pe"
      ],
      [
        "ab",
        "le"
      ],
      [
        "network",
        "s"
      ],
      [
        "o",
        "p"
      ],
      [
        "r",
        "i"
      ],
      [
        "ll",
        "ig"
      ],
      [
        "hu",
        "man"
      ],
      [
        "t",
        "a"
      ],
      [
        "i",
        "ma"
      ],
      [
        "an",
        "s"
      ],
      [
        "re",
        "p"
      ],
      [
        "as",
        "ed"
      ],
      [
        "fic",
        "ial"
      ],
      [
        "h",
        "as"
      ],
      [
        "i",
        "o"
      ],
      [
        "ar",
        "ti"
      ],
      [
        "in",
        "cl"
      ],
      [
        "be",
        "en"
      ],
      [
        "train",
        "ing"
      ],
      [
        "t",
        "y"
      ],
      [
        "ic",
        "h"
      ],
      [
        "a",
        "mp"
      ],
      [
        "al",
        "ly"
      ],
      [
        "m",
        "at"
      ],
      [
        "u",
        "re"
      ],
      [
        "i",
        "es"
      ],
      [
        "t",
        "ed"
      ],
      [
        "wh",
        "ich"
      ],
      [
        "lo",
        "g"
      ],
      [
        "l",
        "d"
      ],
      [
        "t",
        "ing"
      ],
      [
        "inte",
        "llig"
      ],
      [
        "a",
        "ct"
      ],
      [
        "k",
        "s"
      ],
      [
        "en",
        "d"
      ],
      [
        "co",
        "g"
      ],
      [
        "m",
        "b"
      ],
      [
        "p",
        "ar"
      ],
      [
        "d",
        "ic"
      ],
      [
        "f",
        "o"
      ],
      [
        "p",
        "h"
      ],
      [
        "u",
        "g"
      ],
      [
        "il",
        "l"
      ],
      [
        "d",
        "o"
      ],
      [
        "s",
        "ion"
      ],
      [
        "st",
        "r"
      ],
      [
        "d",
        "es"
      ],
      [
        "ti",
        "ve"
      ],
      [
        "f",
        "er"
      ],
      [
        "re",
        "search"
      ],
      [
        "tion",
        "s"
      ],
      [
        "gener",
        "ative"
      ],
      [
        "it",
        "s"
      ],
      [
        "pro",
        "ble"
      ],
      [
        "20",
        "1"
      ],
      [
        "a",
        "ge"
      ],
      [
        "ar",
        "ge"
      ],
      [
        "lo",
        "p"
      ],
      [
        "cl",
        "as"
      ],
      [
        "of",
        "t"
      ],
      [
        "ve",
        "lop"
      ],
      [
        "pro",
        "cess"
      ],
      [
        "de",
        "velop"
      ],
      [
        "D",
        "e"
      ],
      [
        "a",
        "m"
      ],
      [
        "me",
        "th"
      ],
      [
        "in",
        "d"
      ],
      [
        "is",
        "ion"
      ],
      [
        "ab",
        "il"
      ],
      [
        "arti",
        "ficial"
      ],
      [
        "cog",
        "ni"
      ],
      [
        "N",
        "N"
      ],
      [
        "syste",
        "ms"
      ],
      [
        "intellig",
        "ence"
      ],
      [
        "ig",
        "n"
      ],
      [
        "meth",
        "od"
      ],
      [
        "ar",
        "d"
      ],
      [
        "the",
        "ir"
      ],
      [
        "no",
        "w"
      ],
      [
        "b",
        "ased"
      ],
      [
        "m",
        "is"
      ],
      [
        "o",
        "b"
      ],
      [
        "o",
        "ver"
      ],
      [
        "or",
        "y"
      ],
      [
        "lo",
        "w"
      ],
      [
        "ac",
        "k"
      ],
      [
        "e",
        "f"
      ],
      [
        "i",
        "mp"
      ],
      [
        "y",
        "s"
      ],
      [
        "ul",
        "d"
      ],
      [
        ")",
        ","
      ],
      [
        "l",
        "ed"
      ],
      [
        "ex",
        "amp"
      ],
      [
        "a",
        "me"
      ],
      [
        "b",
        "l"
      ],
      [
        "c",
        "ed"
      ],
      [
        "w",
        "o"
      ],
      [
        "w",
        "ere"
      ],
      [
        "l",
        "an"
      ],
      [
        "o",
        "ther"
      ],
      [
        "v",
        "ar"
      ],
      [
        "mo",
        "re"
      ],
      [
        "pre",
        "dic"
      ],
      [
        "k",
        "now"
      ],
      [
        "l",
        "es"
      ],
      [
        "on",
        "e"
      ],
      [
        "is",
        "tic"
      ],
      [
        "res",
        "ent"
      ],
      [
        "ug",
        "h"
      ],
      [
        "e",
        "v"
      ],
      [
        "m",
        "ul"
      ],
      [
        "an",
        "t"
      ],
      [
        "re",
        "cogni"
      ],
      [
        "pro",
        "du"
      ],
      [
        "ap",
        "pro"
      ],
      [
        "g",
        "es"
      ],
      [
        "i",
        "de"
      ],
      [
        "t",
        "as"
      ],
      [
        "in",
        "t"
      ],
      [
        "al",
        "so"
      ],
      [
        "or",
        "s"
      ],
      [
        "pro",
        "gra"
      ],
      [
        "te",
        "ch"
      ],
      [
        "con",
        "t"
      ],
      [
        "ter",
        "n"
      ],
      [
        "c",
        "er"
      ],
      [
        "i",
        "f"
      ],
      [
        "u",
        "res"
      ],
      [
        "is",
        "ed"
      ],
      [
        "de",
        "c"
      ],
      [
        "a",
        "u"
      ],
      [
        ")",
        "."
      ],
      [
        "G",
        "o"
      ],
      [
        "c",
        "or"
      ],
      [
        "c",
        "es"
      ],
      [
        "e",
        "ct"
      ],
      [
        "in",
        "put"
      ],
      [
        "lan",
        "gu"
      ],
      [
        "in",
        "to"
      ],
      [
        "tr",
        "ans"
      ],
      [
        "train",
        "ed"
      ],
      [
        "algorith",
        "ms"
      ],
      [
        "ta",
        "in"
      ],
      [
        "i",
        "v"
      ],
      [
        "is",
        "t"
      ],
      [
        "com",
        "m"
      ],
      [
        "rep",
        "resent"
      ],
      [
        "m",
        "in"
      ],
      [
        "be",
        "t"
      ],
      [
        "De",
        "ep"
      ],
      [
        "b",
        "ut"
      ],
      [
        "d",
        "er"
      ],
      [
        "o",
        "m"
      ],
      [
        "ar",
        "ly"
      ],
      [
        "se",
        "t"
      ],
      [
        "po",
        "s"
      ],
      [
        "ie",
        "ld"
      ],
      [
        "incl",
        "ud"
      ],
      [
        "x",
        "t"
      ],
      [
        "at",
        "es"
      ],
      [
        "pro",
        "v"
      ],
      [
        "ma",
        "y"
      ],
      [
        "di",
        "f"
      ],
      [
        "ment",
        "s"
      ],
      [
        "clas",
        "si"
      ],
      [
        "a",
        "y"
      ],
      [
        "l",
        "arge"
      ],
      [
        "s",
        "er"
      ],
      [
        "the",
        "y"
      ],
      [
        "su",
        "per"
      ],
      [
        "ho",
        "w"
      ],
      [
        "c",
        "ial"
      ],
      [
        "th",
        "is"
      ],
      [
        "so",
        "me"
      ],
      [
        "pl",
        "ic"
      ],
      [
        "e",
        "l"
      ],
      [
        "f",
        "ield"
      ],
      [
        "w",
        "are"
      ],
      [
        "es",
        "t"
      ],
      [
        "out",
        "put"
      ],
      [
        "dec",
        "ision"
      ],
      [
        "i",
        "ti"
      ],
      [
        "in",
        "form"
      ],
      [
        "as",
        "e"
      ],
      [
        "ic",
        "s"
      ],
      [
        "us",
        "ing"
      ],
      [
        "Th",
        "is"
      ],
      [
        "algorith",
        "m"
      ],
      [
        "method",
        "s"
      ],
      [
        "recogni",
        "tion"
      ],
      [
        "f",
        "a"
      ],
      [
        "re",
        "g"
      ],
      [
        "ti",
        "m"
      ],
      [
        "so",
        "l"
      ],
      [
        "g",
        "o"
      ],
      [
        "i",
        "re"
      ],
      [
        "or",
        "t"
      ],
      [
        "ima",
        "ge"
      ],
      [
        "m",
        "ar"
      ],
      [
        "n",
        "u"
      ],
      [
        "u",
        "bl"
      ],
      [
        "an",
        "y"
      ],
      [
        "an",
        "al"
      ],
      [
        "re",
        "l"
      ],
      [
        "is",
        "h"
      ],
      [
        "li",
        "ke"
      ],
      [
        "syste",
        "m"
      ],
      [
        "c",
        "ur"
      ],
      [
        "k",
        "ing"
      ],
      [
        "u",
        "p"
      ],
      [
        "th",
        "an"
      ],
      [
        "langu",
        "age"
      ],
      [
        "\"",
        "."
      ],
      [
        "0",
        "s"
      ],
      [
        "c",
        "y"
      ],
      [
        "e",
        "ch"
      ],
      [
        "man",
        "y"
      ],
      [
        "und",
        "er"
      ],
      [
        "I",
        "t"
      ],
      [
        "c",
        "al"
      ],
      [
        "c",
        "ent"
      ],
      [
        "m",
        "ed"
      ],
      [
        "on",
        "g"
      ],
      [
        "the",
        "se"
      ],
      [
        "lay",
        "er"
      ],
      [
        "examp",
        "le"
      ],
      [
        "h",
        "igh"
      ],
      [
        "o",
        "g"
      ],
      [
        "at",
        "ing"
      ],
      [
        "on",
        "s"
      ],
      [
        "ation",
        "al"
      ],
      [
        "igh",
        "t"
      ],
      [
        "tas",
        "ks"
      ],
      [
        "i",
        "z"
      ],
      [
        "s",
        "oft"
      ],
      [
        "u",
        "de"
      ],
      [
        "an",
        "ce"
      ],
      [
        "re",
        "e"
      ],
      [
        "re",
        "qu"
      ],
      [
        "su",
        "b"
      ],
      [
        "te",
        "xt"
      ],
      [
        "lay",
        "ers"
      ],
      [
        "io",
        "us"
      ],
      [
        "proble",
        "ms"
      ],
      [
        "abil",
        "ity"
      ],
      [
        "G",
        "P"
      ],
      [
        "i",
        "p"
      ],
      [
        "p",
        "at"
      ],
      [
        "u",
        "tion"
      ],
      [
        "in",
        "es"
      ],
      [
        "ar",
        "y"
      ],
      [
        "fe",
        "at"
      ],
      [
        "p",
        "a"
      ],
      [
        "p",
        "r"
      ],
      [
        "p",
        "ubl"
      ],
      [
        "v",
        "ers"
      ],
      [
        "ne",
        "w"
      ],
      [
        "fic",
        "ation"
      ],
      [
        "we",
        "en"
      ],
      [
        "mul",
        "ti"
      ],
      [
        "includ",
        "ing"
      ],
      [
        "inform",
        "ation"
      ],
      [
        "f",
        "ir"
      ],
      [
        "u",
        "al"
      ],
      [
        "ce",
        "p"
      ],
      [
        "un",
        "ction"
      ],
      [
        "ap",
        "plic"
      ],
      [
        "qu",
        "es"
      ],
      [
        "comput",
        "er"
      ],
      [
        "tech",
        "ni"
      ],
      [
        "bet",
        "ween"
      ],
      [
        "0",
        "0"
      ],
      [
        "S",
        "t"
      ],
      [
        "d",
        "ing"
      ],
      [
        "e",
        "t"
      ],
      [
        "f",
        "i"
      ],
      [
        "v",
        "es"
      ],
      [
        "in",
        "cre"
      ],
      [
        "th",
        "o"
      ],
      [
        "re",
        "n"
      ],
      [
        "progra",
        "m"
      ],
      [
        "C",
        "h"
      ],
      [
        "v",
        "al"
      ],
      [
        "v",
        "ised"
      ],
      [
        "ent",
        "s"
      ],
      [
        "ical",
        "ly"
      ],
      [
        "Go",
        "og"
      ],
      [
        "Goog",
        "le"
      ],
      [
        "c",
        "all"
      ],
      [
        "f",
        "unction"
      ],
      [
        "w",
        "er"
      ],
      [
        "in",
        "ter"
      ],
      [
        "le",
        "ct"
      ],
      [
        "enti",
        "al"
      ],
      [
        "spe",
        "ech"
      ],
      [
        "ima",
        "ges"
      ],
      [
        "ser",
        "v"
      ],
      [
        "c",
        "ri"
      ],
      [
        "f",
        "ul"
      ],
      [
        "es",
        "e"
      ],
      [
        "ti",
        "me"
      ],
      [
        "as",
        "s"
      ],
      [
        "ro",
        "ugh"
      ],
      [
        "de",
        "p"
      ],
      [
        "ex",
        "per"
      ],
      [
        "F",
        "or"
      ],
      [
        "c",
        "tive"
      ],
      [
        "n",
        "ing"
      ],
      [
        "w",
        "ill"
      ],
      [
        "incl",
        "ude"
      ],
      [
        "super",
        "vised"
      ],
      [
        "v",
        "ir"
      ],
      [
        "the",
        "mat"
      ],
      [
        "as",
        "t"
      ],
      [
        "de",
        "f"
      ],
      [
        "ex",
        "p"
      ],
      [
        "str",
        "u"
      ],
      [
        "appro",
        "ach"
      ],
      [
        "fir",
        "st"
      ],
      [
        "b",
        "ack"
      ],
      [
        "is",
        "e"
      ],
      [
        "as",
        "es"
      ],
      [
        "ma",
        "themat"
      ],
      [
        "mo",
        "st"
      ],
      [
        "ul",
        "ar"
      ],
      [
        "wh",
        "ere"
      ],
      [
        "ol",
        "d"
      ],
      [
        "research",
        "ers"
      ],
      [
        "develop",
        "ed"
      ],
      [
        "led",
        "ge"
      ],
      [
        "call",
        "ed"
      ],
      [
        "in",
        "s"
      ],
      [
        "su",
        "l"
      ],
      [
        "wo",
        "uld"
      ],
      [
        "know",
        "ledge"
      ],
      [
        "pat",
        "tern"
      ],
      [
        "R",
        "e"
      ],
      [
        "s",
        "ci"
      ],
      [
        "re",
        "sul"
      ],
      [
        "proble",
        "m"
      ],
      [
        "U",
        "n"
      ],
      [
        "b",
        "i"
      ],
      [
        "h",
        "e"
      ],
      [
        "l",
        "ine"
      ],
      [
        "o",
        "s"
      ],
      [
        "v",
        "ol"
      ],
      [
        "th",
        "rough"
      ],
      [
        "us",
        "es"
      ],
      [
        "pro",
        "b"
      ],
      [
        "ur",
        "ing"
      ],
      [
        "ver",
        "y"
      ],
      [
        "gener",
        "al"
      ],
      [
        "id",
        "enti"
      ],
      [
        "spe",
        "ci"
      ],
      [
        "ty",
        "p"
      ],
      [
        "mb",
        "er"
      ],
      [
        "NN",
        "s"
      ],
      [
        "var",
        "i"
      ],
      [
        "cont",
        "ent"
      ],
      [
        "m",
        "en"
      ],
      [
        "r",
        "is"
      ],
      [
        "en",
        "s"
      ],
      [
        "ve",
        "l"
      ],
      [
        "ab",
        "out"
      ],
      [
        "comp",
        "le"
      ],
      [
        "ha",
        "d"
      ],
      [
        "202",
        "3"
      ],
      [
        "iti",
        "es"
      ],
      [
        "G",
        "ener"
      ],
      [
        "j",
        "ect"
      ],
      [
        "en",
        "g"
      ],
      [
        "de",
        "te"
      ],
      [
        "it",
        "e"
      ],
      [
        "it",
        "ed"
      ],
      [
        "tion",
        "al"
      ],
      [
        "res",
        "s"
      ],
      [
        "res",
        "sion"
      ],
      [
        "dif",
        "fer"
      ],
      [
        "go",
        "al"
      ],
      [
        "techni",
        "ques"
      ],
      [
        "A",
        "l"
      ],
      [
        "c",
        "a"
      ],
      [
        "o",
        "us"
      ],
      [
        "v",
        "ide"
      ],
      [
        "ma",
        "ke"
      ],
      [
        "po",
        "t"
      ],
      [
        "po",
        "wer"
      ],
      [
        "la",
        "be"
      ],
      [
        "19",
        "9"
      ],
      [
        "log",
        "y"
      ],
      [
        "oft",
        "en"
      ],
      [
        "process",
        "ing"
      ],
      [
        "pos",
        "si"
      ],
      [
        "classi",
        "fication"
      ],
      [
        "c",
        "u"
      ],
      [
        "c",
        "ap"
      ],
      [
        "i",
        "a"
      ],
      [
        "m",
        "er"
      ],
      [
        "w",
        "ard"
      ],
      [
        "re",
        "as"
      ],
      [
        "lo",
        "y"
      ],
      [
        "ur",
        "al"
      ],
      [
        "per",
        "form"
      ],
      [
        "tr",
        "i"
      ],
      [
        "we",
        "ver"
      ],
      [
        "19",
        "8"
      ],
      [
        "des",
        "ign"
      ],
      [
        "au",
        "to"
      ],
      [
        "speci",
        "fic"
      ],
      [
        "e",
        "ar"
      ],
      [
        "f",
        "y"
      ],
      [
        "l",
        "ic"
      ],
      [
        "p",
        "on"
      ],
      [
        "p",
        "le"
      ],
      [
        "v",
        "ing"
      ],
      [
        "re",
        "al"
      ],
      [
        "al",
        "low"
      ],
      [
        "the",
        "ory"
      ],
      [
        "ro",
        "du"
      ],
      [
        "it",
        "ect"
      ],
      [
        "arch",
        "itect"
      ],
      [
        "ill",
        "ion"
      ],
      [
        "cer",
        "tain"
      ],
      [
        "requ",
        "ire"
      ],
      [
        "applic",
        "ations"
      ],
      [
        "vir",
        "on"
      ],
      [
        "stru",
        "ct"
      ],
      [
        "\"",
        ","
      ],
      [
        "e",
        "ach"
      ],
      [
        "o",
        "ur"
      ],
      [
        "s",
        "h"
      ],
      [
        "x",
        "im"
      ],
      [
        "th",
        "en"
      ],
      [
        "en",
        "viron"
      ],
      [
        "ar",
        "t"
      ],
      [
        "de",
        "m"
      ],
      [
        "us",
        "t"
      ],
      [
        "st",
        "ud"
      ],
      [
        "con",
        "ne"
      ],
      [
        "con",
        "si"
      ],
      [
        "fic",
        "i"
      ],
      [
        "ter",
        "m"
      ],
      [
        "wh",
        "en"
      ],
      [
        "int",
        "rodu"
      ],
      [
        "cer",
        "n"
      ],
      [
        "soft",
        "ware"
      ],
      [
        "reas",
        "on"
      ],
      [
        "f",
        "act"
      ],
      [
        "g",
        "ro"
      ],
      [
        "i",
        "le"
      ],
      [
        "s",
        "cal"
      ],
      [
        "on",
        "ly"
      ],
      [
        "an",
        "ies"
      ],
      [
        "st",
        "ate"
      ],
      [
        "202",
        "4"
      ],
      [
        "op",
        "le"
      ],
      [
        "fo",
        "und"
      ],
      [
        "anal",
        "ys"
      ],
      [
        "ish",
        "ed"
      ],
      [
        "GP",
        "T"
      ],
      [
        "A",
        "n"
      ],
      [
        "M",
        "ach"
      ],
      [
        "a",
        "v"
      ],
      [
        "b",
        "u"
      ],
      [
        "b",
        "io"
      ],
      [
        "e",
        "arly"
      ],
      [
        "g",
        "an"
      ],
      [
        "k",
        "es"
      ],
      [
        "m",
        "il"
      ],
      [
        "o",
        "per"
      ],
      [
        "s",
        "how"
      ],
      [
        "at",
        "istic"
      ],
      [
        "ar",
        "gu"
      ],
      [
        "ti",
        "v"
      ],
      [
        "ic",
        "es"
      ],
      [
        "to",
        "ol"
      ],
      [
        "be",
        "ing"
      ],
      [
        "ra",
        "in"
      ],
      [
        "pe",
        "ople"
      ],
      [
        "gener",
        "ated"
      ],
      [
        "bo",
        "th"
      ],
      [
        "par",
        "tic"
      ],
      [
        "ef",
        "fe"
      ],
      [
        "feat",
        "ures"
      ],
      [
        "exper",
        "i"
      ],
      [
        "Gener",
        "ative"
      ],
      [
        "L",
        "L"
      ],
      [
        "e",
        "th"
      ],
      [
        "e",
        "lect"
      ],
      [
        "l",
        "f"
      ],
      [
        "p",
        "ag"
      ],
      [
        "p",
        "ri"
      ],
      [
        "s",
        "ing"
      ],
      [
        "s",
        "ign"
      ],
      [
        "t",
        "wo"
      ],
      [
        "re",
        "ct"
      ],
      [
        "the",
        "m"
      ],
      [
        "le",
        "vel"
      ],
      [
        "su",
        "c"
      ],
      [
        "ct",
        "s"
      ],
      [
        "Th",
        "ese"
      ],
      [
        "per",
        "for"
      ],
      [
        "ver",
        "al"
      ],
      [
        "ap",
        "p"
      ],
      [
        "tic",
        "al"
      ],
      [
        "we",
        "ll"
      ],
      [
        "mb",
        "ol"
      ],
      [
        "A",
        "r"
      ],
      [
        "H",
        "o"
      ],
      [
        "r",
        "an"
      ],
      [
        "w",
        "n"
      ],
      [
        "w",
        "ay"
      ],
      [
        "re",
        "du"
      ],
      [
        "en",
        "ces"
      ],
      [
        "co",
        "l"
      ],
      [
        "st",
        "atistic"
      ],
      [
        "mo",
        "us"
      ],
      [
        "su",
        "r"
      ],
      [
        "con",
        "cern"
      ],
      [
        "res",
        "pon"
      ],
      [
        "work",
        "s"
      ],
      [
        "gener",
        "ate"
      ],
      [
        "ther",
        "e"
      ],
      [
        "dis",
        "co"
      ],
      [
        "log",
        "ic"
      ],
      [
        "suc",
        "cess"
      ],
      [
        "C",
        "o"
      ],
      [
        "c",
        "r"
      ],
      [
        "d",
        "en"
      ],
      [
        "g",
        "y"
      ],
      [
        "h",
        "and"
      ],
      [
        "l",
        "ess"
      ],
      [
        "n",
        "ess"
      ],
      [
        "co",
        "uld"
      ],
      [
        "pro",
        "pag"
      ],
      [
        "comp",
        "anies"
      ],
      [
        "wh",
        "at"
      ],
      [
        "di",
        "men"
      ],
      [
        "sy",
        "mbol"
      ],
      [
        "ad",
        "v"
      ],
      [
        "li",
        "ed"
      ],
      [
        "igh",
        "ts"
      ],
      [
        "know",
        "n"
      ],
      [
        "cur",
        "ren"
      ],
      [
        "pattern",
        "s"
      ],
      [
        "line",
        "ar"
      ],
      [
        "comple",
        "x"
      ],
      [
        "environ",
        "ment"
      ],
      [
        "introdu",
        "ced"
      ],
      [
        "reason",
        "ing"
      ],
      [
        "scal",
        "e"
      ],
      [
        "analys",
        "is"
      ],
      [
        "dimen",
        "sion"
      ],
      [
        "P",
        "ro"
      ],
      [
        "a",
        "f"
      ],
      [
        "b",
        "er"
      ],
      [
        "c",
        "lo"
      ],
      [
        "n",
        "on"
      ],
      [
        "p",
        "p"
      ],
      [
        "p",
        "ha"
      ],
      [
        "s",
        "ig"
      ],
      [
        "in",
        "ce"
      ],
      [
        "at",
        "er"
      ],
      [
        "at",
        "or"
      ],
      [
        "re",
        "d"
      ],
      [
        "pro",
        "ve"
      ],
      [
        "se",
        "lf"
      ],
      [
        "te",
        "mp"
      ],
      [
        "si",
        "mil"
      ],
      [
        "man",
        "ce"
      ],
      [
        "gener",
        "ation"
      ],
      [
        "pre",
        "v"
      ],
      [
        "neur",
        "ons"
      ],
      [
        "clas",
        "s"
      ],
      [
        "develop",
        "ment"
      ],
      [
        "progra",
        "ms"
      ],
      [
        "trans",
        "form"
      ],
      [
        "iv",
        "en"
      ],
      [
        "multi",
        "ple"
      ],
      [
        "mathemat",
        "ical"
      ],
      [
        "ca",
        "use"
      ],
      [
        "consi",
        "der"
      ],
      [
        "perfor",
        "mance"
      ],
      [
        ".",
        ","
      ],
      [
        "N",
        "e"
      ],
      [
        "U",
        "S"
      ],
      [
        "f",
        "ra"
      ],
      [
        "h",
        "ard"
      ],
      [
        "i",
        "lo"
      ],
      [
        "v",
        "ed"
      ],
      [
        "z",
        "e"
      ],
      [
        "at",
        "t"
      ],
      [
        "al",
        "ity"
      ],
      [
        "le",
        "ad"
      ],
      [
        "ic",
        "e"
      ],
      [
        "ic",
        "ro"
      ],
      [
        "us",
        "ion"
      ],
      [
        "se",
        "veral"
      ],
      [
        "ct",
        "ed"
      ],
      [
        "wor",
        "ld"
      ],
      [
        "fic",
        "ant"
      ],
      [
        "ni",
        "ficant"
      ],
      [
        "ag",
        "es"
      ],
      [
        "im",
        "prove"
      ],
      [
        "pl",
        "an"
      ],
      [
        "ob",
        "serv"
      ],
      [
        "examp",
        "les"
      ],
      [
        "pos",
        "ed"
      ],
      [
        "nu",
        "mber"
      ],
      [
        "pa",
        "ce"
      ],
      [
        "stud",
        "y"
      ],
      [
        "Ho",
        "wever"
      ],
      [
        "sig",
        "nificant"
      ],
      [
        "G",
        "e"
      ],
      [
        "c",
        "us"
      ],
      [
        "g",
        "r"
      ],
      [
        "g",
        "en"
      ],
      [
        "m",
        "al"
      ],
      [
        "o",
        "re"
      ],
      [
        "p",
        "lay"
      ],
      [
        "an",
        "ti"
      ],
      [
        "re",
        "le"
      ],
      [
        "is",
        "m"
      ],
      [
        "ro",
        "bo"
      ],
      [
        "ch",
        "an"
      ],
      [
        "co",
        "me"
      ],
      [
        "ent",
        "ly"
      ],
      [
        "se",
        "qu"
      ],
      [
        "learn",
        "ed"
      ],
      [
        "wh",
        "o"
      ],
      [
        "The",
        "y"
      ],
      [
        "mach",
        "ines"
      ],
      [
        "des",
        "cri"
      ],
      [
        "decision",
        "s"
      ],
      [
        "rel",
        "ated"
      ],
      [
        "publ",
        "ic"
      ],
      [
        "possi",
        "ble"
      ],
      [
        "elect",
        "r"
      ],
      [
        "app",
        "lied"
      ],
      [
        "curren",
        "t"
      ],
      [
        "S",
        "e"
      ],
      [
        "f",
        "ind"
      ],
      [
        "n",
        "er"
      ],
      [
        "o",
        "k"
      ],
      [
        "p",
        "ers"
      ],
      [
        "u",
        "ally"
      ],
      [
        "in",
        "f"
      ],
      [
        "es",
        "tim"
      ],
      [
        "ti",
        "ficial"
      ],
      [
        "is",
        "su"
      ],
      [
        "of",
        "f"
      ],
      [
        "ut",
        "on"
      ],
      [
        "ac",
        "tion"
      ],
      [
        "wor",
        "d"
      ],
      [
        "20",
        "0"
      ],
      [
        "fic",
        "ul"
      ],
      [
        "wh",
        "ile"
      ],
      [
        "202",
        "5"
      ],
      [
        "log",
        "ical"
      ],
      [
        "ef",
        "fici"
      ],
      [
        "produ",
        "ced"
      ],
      [
        "appro",
        "xim"
      ],
      [
        "tech",
        "no"
      ],
      [
        "prov",
        "id"
      ],
      [
        "dif",
        "ficul"
      ],
      [
        "tho",
        "ugh"
      ],
      [
        "dep",
        "end"
      ],
      [
        "resul",
        "ts"
      ],
      [
        "Un",
        "ited"
      ],
      [
        "identi",
        "fy"
      ],
      [
        "typ",
        "ically"
      ],
      [
        "vide",
        "o"
      ],
      [
        "bu",
        "il"
      ],
      [
        "sign",
        "al"
      ],
      [
        "Ar",
        "tificial"
      ],
      [
        "N",
        "et"
      ],
      [
        "a",
        "k"
      ],
      [
        "e",
        "mp"
      ],
      [
        "f",
        "it"
      ],
      [
        "g",
        "over"
      ],
      [
        "l",
        "ing"
      ],
      [
        "m",
        "ing"
      ],
      [
        "n",
        "at"
      ],
      [
        "s",
        "s"
      ],
      [
        "s",
        "it"
      ],
      [
        "s",
        "pace"
      ],
      [
        "v",
        "en"
      ],
      [
        "in",
        "st"
      ],
      [
        "be",
        "ha"
      ],
      [
        "ma",
        "king"
      ],
      [
        "ct",
        "or"
      ],
      [
        "ab",
        "les"
      ],
      [
        "si",
        "ve"
      ],
      [
        "ex",
        "t"
      ],
      [
        "dis",
        "tri"
      ],
      [
        "comput",
        "ational"
      ],
      [
        "rep",
        "or"
      ],
      [
        "fo",
        "re"
      ],
      [
        "comm",
        "end"
      ],
      [
        "publ",
        "ished"
      ],
      [
        "val",
        "u"
      ],
      [
        "pot",
        "ential"
      ],
      [
        "Mach",
        "ine"
      ],
      [
        "tool",
        "s"
      ],
      [
        "simil",
        "ar"
      ],
      [
        ".",
        "\""
      ],
      [
        "B",
        "y"
      ],
      [
        "C",
        "on"
      ],
      [
        "N",
        "o"
      ],
      [
        "S",
        "T"
      ],
      [
        "U",
        "s"
      ],
      [
        "a",
        "il"
      ],
      [
        "a",
        "uton"
      ],
      [
        "b",
        "rain"
      ],
      [
        "c",
        "lear"
      ],
      [
        "e",
        "qu"
      ],
      [
        "f",
        "in"
      ],
      [
        "g",
        "iven"
      ],
      [
        "h",
        "el"
      ],
      [
        "h",
        "old"
      ],
      [
        "p",
        "y"
      ],
      [
        "s",
        "ame"
      ],
      [
        "v",
        "ie"
      ],
      [
        "w",
        "r"
      ],
      [
        "ti",
        "es"
      ],
      [
        "ic",
        "k"
      ],
      [
        "be",
        "li"
      ],
      [
        "ra",
        "cy"
      ],
      [
        "for",
        "ce"
      ],
      [
        "un",
        "its"
      ],
      [
        "ul",
        "es"
      ],
      [
        "po",
        "p"
      ],
      [
        "di",
        "tional"
      ],
      [
        "comput",
        "ing"
      ],
      [
        "human",
        "s"
      ],
      [
        "imp",
        "act"
      ],
      [
        "predic",
        "t"
      ],
      [
        "tas",
        "k"
      ],
      [
        "sol",
        "ve"
      ],
      [
        "med",
        "ical"
      ],
      [
        "iz",
        "ation"
      ],
      [
        "def",
        "in"
      ],
      [
        "back",
        "propag"
      ],
      [
        "prob",
        "abil"
      ],
      [
        "eng",
        "ine"
      ],
      [
        "Al",
        "pha"
      ],
      [
        "hard",
        "ware"
      ],
      [
        "M",
        "s"
      ],
      [
        "l",
        "ong"
      ],
      [
        "m",
        "it"
      ],
      [
        "n",
        "am"
      ],
      [
        "o",
        "mous"
      ],
      [
        "p",
        "en"
      ],
      [
        "s",
        "a"
      ],
      [
        "s",
        "ti"
      ],
      [
        "s",
        "is"
      ],
      [
        "t",
        "ers"
      ],
      [
        "t",
        "arge"
      ],
      [
        "v",
        "ision"
      ],
      [
        "an",
        "ces"
      ],
      [
        "ch",
        "o"
      ],
      [
        "st",
        "and"
      ],
      [
        "ul",
        "ation"
      ],
      [
        "ac",
        "tions"
      ],
      [
        "ac",
        "cu"
      ],
      [
        "so",
        "ci"
      ],
      [
        "po",
        "si"
      ],
      [
        "with",
        "out"
      ],
      [
        "ction",
        "s"
      ],
      [
        "ie",
        "ty"
      ],
      [
        "ach",
        "ie"
      ],
      [
        "19",
        "6"
      ],
      [
        "com",
        "b"
      ],
      [
        "inte",
        "gr"
      ],
      [
        "mis",
        "sion"
      ],
      [
        "var",
        "ious"
      ],
      [
        "predic",
        "tions"
      ],
      [
        "fa",
        "ir"
      ],
      [
        "feat",
        "ure"
      ],
      [
        "approach",
        "es"
      ],
      [
        "differ",
        "ent"
      ],
      [
        "prev",
        "ious"
      ],
      [
        "gover",
        "n"
      ],
      [
        "beha",
        "v"
      ],
      [
        "repor",
        "ted"
      ],
      [
        "backpropag",
        "ation"
      ],
      [
        "M",
        "icro"
      ],
      [
        "c",
        "ame"
      ],
      [
        "f",
        "ac"
      ],
      [
        "h",
        "i"
      ],
      [
        "h",
        "ip"
      ],
      [
        "i",
        "an"
      ],
      [
        "l",
        "u"
      ],
      [
        "u",
        "le"
      ],
      [
        "in",
        "tern"
      ],
      [
        "at",
        "temp"
      ],
      [
        "re",
        "commend"
      ],
      [
        "en",
        "se"
      ],
      [
        "ti",
        "mis"
      ],
      [
        "and",
        "om"
      ],
      [
        "us",
        "ers"
      ],
      [
        "pro",
        "posed"
      ],
      [
        "be",
        "cause"
      ],
      [
        "ma",
        "in"
      ],
      [
        "un",
        "supervised"
      ],
      [
        "Th",
        "ere"
      ],
      [
        "ac",
        "y"
      ],
      [
        "20",
        "20"
      ],
      [
        "per",
        "cep"
      ],
      [
        "pe",
        "cial"
      ],
      [
        "tr",
        "u"
      ],
      [
        "ag",
        "ents"
      ],
      [
        "op",
        "en"
      ],
      [
        "op",
        "timis"
      ],
      [
        "ph",
        "ys"
      ],
      [
        "imp",
        "le"
      ],
      [
        "cor",
        "ding"
      ],
      [
        "output",
        "s"
      ],
      [
        "fi",
        "ed"
      ],
      [
        "Ch",
        "at"
      ],
      [
        "sci",
        "ence"
      ],
      [
        "dete",
        "ction"
      ],
      [
        "av",
        "ail"
      ],
      [
        "symbol",
        "ic"
      ],
      [
        "af",
        "ter"
      ],
      [
        "pers",
        "on"
      ],
      [
        "D",
        "if"
      ],
      [
        "E",
        "x"
      ],
      [
        "M",
        "ind"
      ],
      [
        "M",
        "any"
      ],
      [
        "S",
        "u"
      ],
      [
        "b",
        "en"
      ],
      [
        "c",
        "ing"
      ],
      [
        "k",
        "o"
      ],
      [
        "k",
        "en"
      ],
      [
        "m",
        "all"
      ],
      [
        "r",
        "ight"
      ],
      [
        "s",
        "ince"
      ],
      [
        "u",
        "ro"
      ],
      [
        "u",
        "ation"
      ],
      [
        "u",
        "tions"
      ],
      [
        "v",
        "o"
      ],
      [
        "w",
        "s"
      ],
      [
        "in",
        "force"
      ],
      [
        "er",
        "r"
      ],
      [
        "er",
        "ial"
      ],
      [
        "en",
        "co"
      ],
      [
        "le",
        "g"
      ],
      [
        "le",
        "ction"
      ],
      [
        "as",
        "soci"
      ],
      [
        "us",
        "tr"
      ],
      [
        "ra",
        "ther"
      ],
      [
        "lo",
        "b"
      ],
      [
        "me",
        "as"
      ],
      [
        "ul",
        "arly"
      ],
      [
        "In",
        "te"
      ],
      [
        "sy",
        "n"
      ],
      [
        "ag",
        "ent"
      ],
      [
        "im",
        "prov"
      ],
      [
        "cre",
        "ated"
      ],
      [
        "com",
        "es"
      ],
      [
        "op",
        "tim"
      ],
      [
        "mat",
        "erial"
      ],
      [
        "par",
        "ame"
      ],
      [
        "produ",
        "ce"
      ],
      [
        "trans",
        "l"
      ],
      [
        "represent",
        "ation"
      ],
      [
        "Deep",
        "Mind"
      ],
      [
        "reg",
        "ression"
      ],
      [
        "anal",
        "y"
      ],
      [
        "program",
        "ming"
      ],
      [
        "architect",
        "ures"
      ],
      [
        "rect",
        "ly"
      ],
      [
        "concern",
        "s"
      ],
      [
        "Co",
        "mp"
      ],
      [
        "auton",
        "omous"
      ],
      [
        "hel",
        "p"
      ],
      [
        "accu",
        "racy"
      ],
      [
        "behav",
        "io"
      ],
      [
        "Micro",
        "soft"
      ],
      [
        "imple",
        "ment"
      ],
      [
        "C",
        "A"
      ],
      [
        "a",
        "mo"
      ],
      [
        "b",
        "ution"
      ],
      [
        "d",
        "ed"
      ],
      [
        "d",
        "uring"
      ],
      [
        "e",
        "c"
      ],
      [
        "f",
        "ut"
      ],
      [
        "f",
        "usion"
      ],
      [
        "g",
        "ing"
      ],
      [
        "h",
        "y"
      ],
      [
        "h",
        "ist"
      ],
      [
        "o",
        "se"
      ],
      [
        "o",
        "me"
      ],
      [
        "r",
        "ules"
      ],
      [
        "r",
        "andom"
      ],
      [
        "w",
        "a"
      ],
      [
        "in",
        "ation"
      ],
      [
        "an",
        "ts"
      ],
      [
        "al",
        "th"
      ],
      [
        "es",
        "pecial"
      ],
      [
        "ti",
        "l"
      ],
      [
        "is",
        "ation"
      ],
      [
        "as",
        "ing"
      ],
      [
        "co",
        "py"
      ],
      [
        "st",
        "ep"
      ],
      [
        "be",
        "came"
      ],
      [
        "ne",
        "ed"
      ],
      [
        "con",
        "tain"
      ],
      [
        "ac",
        "tiv"
      ],
      [
        "so",
        "ph"
      ],
      [
        "so",
        "cial"
      ],
      [
        "comp",
        "e"
      ],
      [
        "comp",
        "ression"
      ],
      [
        "di",
        "v"
      ],
      [
        "tic",
        "s"
      ],
      [
        "enti",
        "ally"
      ],
      [
        "19",
        "7"
      ],
      [
        "gra",
        "ph"
      ],
      [
        "rep",
        "ort"
      ],
      [
        "ev",
        "al"
      ],
      [
        "produ",
        "cts"
      ],
      [
        "cont",
        "ro"
      ],
      [
        "input",
        "s"
      ],
      [
        "represent",
        "ed"
      ],
      [
        "ire",
        "d"
      ],
      [
        "rel",
        "ations"
      ],
      [
        "high",
        "er"
      ],
      [
        "tho",
        "se"
      ],
      [
        "ject",
        "s"
      ],
      [
        "goal",
        "s"
      ],
      [
        "argu",
        "ed"
      ],
      [
        "eth",
        "ical"
      ],
      [
        "statistic",
        "al"
      ],
      [
        "ilo",
        "soph"
      ],
      [
        "descri",
        "b"
      ],
      [
        "techno",
        "logy"
      ],
      [
        "nat",
        "ural"
      ],
      [
        "pop",
        "ular"
      ],
      [
        "avail",
        "able"
      ],
      [
        "inforce",
        "ment"
      ],
      [
        "amo",
        "un"
      ],
      [
        "especial",
        "ly"
      ],
      [
        "A",
        "s"
      ],
      [
        "L",
        "ST"
      ],
      [
        "O",
        "pen"
      ],
      [
        "R",
        "NN"
      ],
      [
        "c",
        "are"
      ],
      [
        "e",
        "as"
      ],
      [
        "g",
        "ame"
      ],
      [
        "j",
        "ob"
      ],
      [
        "l",
        "er"
      ],
      [
        "m",
        "illion"
      ],
      [
        "o",
        "th"
      ],
      [
        "o",
        "und"
      ],
      [
        "s",
        "to"
      ],
      [
        "s",
        "amp"
      ],
      [
        "s",
        "mall"
      ],
      [
        "v",
        "is"
      ],
      [
        "w",
        "ide"
      ],
      [
        "in",
        "a"
      ],
      [
        "on",
        "str"
      ],
      [
        "re",
        "ad"
      ],
      [
        "or",
        "d"
      ],
      [
        "the",
        "ore"
      ],
      [
        "ve",
        "ctor"
      ],
      [
        "ra",
        "c"
      ],
      [
        "con",
        "cep"
      ],
      [
        "si",
        "mul"
      ],
      [
        "dat",
        "ase"
      ],
      [
        "with",
        "in"
      ],
      [
        "la",
        "in"
      ],
      [
        "qu",
        "e"
      ],
      [
        "du",
        "e"
      ],
      [
        "202",
        "2"
      ],
      [
        "ta",
        "ke"
      ],
      [
        "do",
        "es"
      ],
      [
        "fer",
        "ence"
      ],
      [
        "201",
        "5"
      ],
      [
        "201",
        "6"
      ],
      [
        "ev",
        "en"
      ],
      [
        "au",
        "th"
      ],
      [
        "au",
        "di"
      ],
      [
        "comm",
        "on"
      ],
      [
        "tim",
        "es"
      ],
      [
        "mar",
        "ke"
      ],
      [
        "00",
        "0"
      ],
      [
        "St",
        "ates"
      ],
      [
        "incre",
        "ase"
      ],
      [
        "he",
        "alth"
      ],
      [
        "vol",
        "ution"
      ],
      [
        "prob",
        "ability"
      ],
      [
        "vari",
        "ables"
      ],
      [
        "ris",
        "k"
      ],
      [
        "ris",
        "ks"
      ],
      [
        "design",
        "ed"
      ],
      [
        "auto",
        "m"
      ],
      [
        "architect",
        "ure"
      ],
      [
        "struct",
        "ure"
      ],
      [
        "dem",
        "onstr"
      ],
      [
        "pri",
        "v"
      ],
      [
        "sur",
        "ve"
      ],
      [
        "dimension",
        "al"
      ],
      [
        "fra",
        "me"
      ],
      [
        "lead",
        "ing"
      ],
      [
        "inf",
        "lu"
      ],
      [
        "estim",
        "ated"
      ],
      [
        "wr",
        "it"
      ],
      [
        "probabil",
        "istic"
      ],
      [
        "Chat",
        "GPT"
      ],
      [
        "Inte",
        "llig"
      ],
      [
        "behavio",
        "ur"
      ],
      [
        "fut",
        "ure"
      ],
      [
        "1",
        "0"
      ],
      [
        "L",
        "e"
      ],
      [
        "M",
        "ar"
      ],
      [
        "T",
        "uring"
      ],
      [
        "b",
        "illion"
      ],
      [
        "f",
        "al"
      ],
      [
        "f",
        "il"
      ],
      [
        "g",
        "am"
      ],
      [
        "h",
        "ar"
      ],
      [
        "s",
        "ho"
      ],
      [
        "t",
        "re"
      ],
      [
        "t",
        "est"
      ],
      [
        "u",
        "c"
      ],
      [
        "u",
        "ne"
      ],
      [
        "w",
        "id"
      ],
      [
        "w",
        "ater"
      ],
      [
        "in",
        "vol"
      ],
      [
        "at",
        "ors"
      ],
      [
        "or",
        "ig"
      ],
      [
        "or",
        "der"
      ],
      [
        "or",
        "gan"
      ],
      [
        "ion",
        "s"
      ],
      [
        "co",
        "un"
      ],
      [
        "it",
        "er"
      ],
      [
        "pro",
        "per"
      ],
      [
        "ma",
        "de"
      ],
      [
        "su",
        "f"
      ],
      [
        "su",
        "pp"
      ],
      [
        "ur",
        "ther"
      ],
      [
        "ct",
        "ors"
      ],
      [
        "me",
        "m"
      ],
      [
        "ab",
        "or"
      ],
      [
        "ab",
        "ly"
      ],
      [
        "po",
        "lic"
      ],
      [
        "qu",
        "ality"
      ],
      [
        "id",
        "den"
      ],
      [
        "igh",
        "ted"
      ],
      [
        "comput",
        "ation"
      ],
      [
        "cre",
        "ate"
      ],
      [
        "bo",
        "ok"
      ],
      [
        "intellig",
        "ent"
      ],
      [
        "mb",
        "ed"
      ],
      [
        "langu",
        "ages"
      ],
      [
        "pr",
        "of"
      ],
      [
        "dep",
        "loy"
      ],
      [
        "ctive",
        "ly"
      ],
      [
        "typ",
        "es"
      ],
      [
        "labe",
        "l"
      ],
      [
        "labe",
        "ll"
      ],
      [
        "199",
        "0s"
      ],
      [
        "cap",
        "able"
      ],
      [
        "bio",
        "logical"
      ],
      [
        "partic",
        "ularly"
      ],
      [
        "cr",
        "im"
      ],
      [
        "emp",
        "loy"
      ],
      [
        "fit",
        "ting"
      ],
      [
        "distri",
        "bution"
      ],
      [
        "vie",
        "w"
      ],
      [
        "fair",
        "ness"
      ],
      [
        "div",
        "id"
      ],
      [
        "relations",
        "hip"
      ],
      [
        "priv",
        "acy"
      ],
      [
        "Intellig",
        "ence"
      ],
      [
        "fal",
        "se"
      ],
      [
        "O",
        "ther"
      ],
      [
        "R",
        "ese"
      ],
      [
        "S",
        "ome"
      ],
      [
        "c",
        "ar"
      ],
      [
        "f",
        "und"
      ],
      [
        "g",
        "lob"
      ],
      [
        "l",
        "ack"
      ],
      [
        "m",
        "id"
      ],
      [
        "m",
        "ind"
      ],
      [
        "p",
        "or"
      ],
      [
        "r",
        "ule"
      ],
      [
        "t",
        "es"
      ],
      [
        "t",
        "ree"
      ],
      [
        "at",
        "ory"
      ],
      [
        "ar",
        "ial"
      ],
      [
        "to",
        "p"
      ],
      [
        "ch",
        "ar"
      ],
      [
        "co",
        "st"
      ],
      [
        "be",
        "gan"
      ],
      [
        "be",
        "come"
      ],
      [
        "ma",
        "j"
      ],
      [
        "ne",
        "g"
      ],
      [
        "se",
        "ts"
      ],
      [
        "for",
        "ms"
      ],
      [
        "for",
        "ward"
      ],
      [
        "un",
        "iv"
      ],
      [
        "res",
        "pe"
      ],
      [
        "are",
        "d"
      ],
      [
        "so",
        "ur"
      ],
      [
        "ener",
        "gy"
      ],
      [
        "model",
        "ing"
      ],
      [
        "po",
        "in"
      ],
      [
        "di",
        "tion"
      ],
      [
        "we",
        "b"
      ],
      [
        "fe",
        "ed"
      ],
      [
        "pl",
        "ac"
      ],
      [
        "comput",
        "ers"
      ],
      [
        "end",
        "ed"
      ],
      [
        "fo",
        "c"
      ],
      [
        "imp",
        "ort"
      ],
      [
        "cont",
        "in"
      ],
      [
        "min",
        "ing"
      ],
      [
        "classi",
        "fi"
      ],
      [
        "med",
        "ia"
      ],
      [
        "vers",
        "arial"
      ],
      [
        "applic",
        "ation"
      ],
      [
        "incre",
        "asing"
      ],
      [
        "function",
        "s"
      ],
      [
        "bi",
        "ases"
      ],
      [
        "dete",
        "ct"
      ],
      [
        "LL",
        "Ms"
      ],
      [
        "disco",
        "ver"
      ],
      [
        "consider",
        "ed"
      ],
      [
        "plan",
        "ning"
      ],
      [
        "gen",
        "e"
      ],
      [
        "beli",
        "ef"
      ],
      [
        "targe",
        "t"
      ],
      [
        "orig",
        "in"
      ],
      [
        "Rese",
        "arch"
      ],
      [
        "univ",
        "ers"
      ],
      [
        "\"",
        ")"
      ],
      [
        "A",
        "no"
      ],
      [
        "B",
        "ay"
      ],
      [
        "G",
        "A"
      ],
      [
        "H",
        "u"
      ],
      [
        "I",
        "ma"
      ],
      [
        "M",
        "L"
      ],
      [
        "P",
        "h"
      ],
      [
        "a",
        "i"
      ],
      [
        "a",
        "dem"
      ],
      [
        "b",
        "r"
      ],
      [
        "b",
        "as"
      ],
      [
        "b",
        "ro"
      ],
      [
        "c",
        "ul"
      ],
      [
        "d",
        "y"
      ],
      [
        "e",
        "mbed"
      ],
      [
        "f",
        "urther"
      ],
      [
        "h",
        "idden"
      ],
      [
        "i",
        "dat"
      ],
      [
        "l",
        "ate"
      ],
      [
        "m",
        "on"
      ],
      [
        "m",
        "mar"
      ],
      [
        "p",
        "res"
      ],
      [
        "p",
        "ass"
      ],
      [
        "s",
        "ent"
      ],
      [
        "w",
        "in"
      ],
      [
        "z",
        "ed"
      ],
      [
        "in",
        "ci"
      ],
      [
        "er",
        "ing"
      ],
      [
        "at",
        "bo"
      ],
      [
        "an",
        "other"
      ],
      [
        "re",
        "f"
      ],
      [
        "re",
        "y"
      ],
      [
        "re",
        "inforcement"
      ],
      [
        "en",
        "cy"
      ],
      [
        "al",
        "s"
      ],
      [
        "ch",
        "atbo"
      ],
      [
        "de",
        "v"
      ],
      [
        "st",
        "ra"
      ],
      [
        "ce",
        "iv"
      ],
      [
        "su",
        "mp"
      ],
      [
        "con",
        "f"
      ],
      [
        "con",
        "text"
      ],
      [
        "ac",
        "adem"
      ],
      [
        "no",
        "des"
      ],
      [
        "si",
        "mp"
      ],
      [
        "ex",
        "ist"
      ],
      [
        "cl",
        "us"
      ],
      [
        "po",
        "se"
      ],
      [
        "di",
        "ag"
      ],
      [
        "ment",
        "al"
      ],
      [
        "pre",
        "ad"
      ],
      [
        "all",
        "uc"
      ],
      [
        "act",
        "er"
      ],
      [
        "cog",
        "n"
      ],
      [
        "dic",
        "tion"
      ],
      [
        "ph",
        "ilosoph"
      ],
      [
        "str",
        "ic"
      ],
      [
        "str",
        "ate"
      ],
      [
        "201",
        "4"
      ],
      [
        "201",
        "7"
      ],
      [
        "process",
        "es"
      ],
      [
        "am",
        "ong"
      ],
      [
        "ind",
        "ustr"
      ],
      [
        "var",
        "iety"
      ],
      [
        "predic",
        "tion"
      ],
      [
        "bet",
        "ter"
      ],
      [
        "fa",
        "ke"
      ],
      [
        "reg",
        "ul"
      ],
      [
        "sol",
        "utions"
      ],
      [
        "nu",
        "clear"
      ],
      [
        "under",
        "stand"
      ],
      [
        "pr",
        "inci"
      ],
      [
        "techni",
        "que"
      ],
      [
        "vide",
        "os"
      ],
      [
        "gro",
        "w"
      ],
      [
        "partic",
        "ular"
      ],
      [
        "respon",
        "se"
      ],
      [
        "disco",
        "very"
      ],
      [
        "success",
        "ful"
      ],
      [
        "difficul",
        "t"
      ],
      [
        "intern",
        "al"
      ],
      [
        "phys",
        "ical"
      ],
      [
        "Dif",
        "fusion"
      ],
      [
        "leg",
        "al"
      ],
      [
        "hist",
        "ory"
      ],
      [
        "LST",
        "M"
      ],
      [
        "Open",
        "AI"
      ],
      [
        "audi",
        "o"
      ],
      [
        "labell",
        "ed"
      ],
      [
        "crim",
        "in"
      ],
      [
        "maj",
        "or"
      ],
      [
        "poin",
        "ts"
      ],
      [
        "Bay",
        "es"
      ],
      [
        "3",
        "0"
      ],
      [
        "A",
        "NN"
      ],
      [
        "D",
        "A"
      ],
      [
        "D",
        "NNs"
      ],
      [
        "L",
        "ear"
      ],
      [
        "M",
        "A"
      ],
      [
        "M",
        "o"
      ],
      [
        "S",
        "y"
      ],
      [
        "S",
        "im"
      ],
      [
        "W",
        "h"
      ],
      [
        "a",
        "in"
      ],
      [
        "a",
        "im"
      ],
      [
        "c",
        "k"
      ],
      [
        "c",
        "ate"
      ],
      [
        "d",
        "ers"
      ],
      [
        "e",
        "ther"
      ],
      [
        "h",
        "alluc"
      ],
      [
        "j",
        "our"
      ],
      [
        "o",
        "t"
      ],
      [
        "o",
        "si"
      ],
      [
        "o",
        "wn"
      ],
      [
        "p",
        "ur"
      ],
      [
        "p",
        "arti"
      ],
      [
        "r",
        "ights"
      ],
      [
        "s",
        "p"
      ],
      [
        "s",
        "ed"
      ],
      [
        "w",
        "ar"
      ],
      [
        "in",
        "ves"
      ],
      [
        "re",
        "ed"
      ],
      [
        "re",
        "li"
      ],
      [
        "re",
        "cogn"
      ],
      [
        "or",
        "ies"
      ],
      [
        "the",
        "sis"
      ],
      [
        "ar",
        "ound"
      ],
      [
        "ing",
        "s"
      ],
      [
        "ro",
        "ss"
      ],
      [
        "ch",
        "all"
      ],
      [
        "us",
        "er"
      ],
      [
        "ly",
        "ing"
      ],
      [
        "ut",
        "e"
      ],
      [
        "se",
        "e"
      ],
      [
        "ce",
        "ler"
      ],
      [
        "me",
        "ans"
      ],
      [
        "con",
        "sci"
      ],
      [
        "are",
        "n"
      ],
      [
        "ac",
        "celer"
      ],
      [
        "so",
        "c"
      ],
      [
        "si",
        "ze"
      ],
      [
        "comp",
        "on"
      ],
      [
        "comp",
        "ress"
      ],
      [
        "ter",
        "ms"
      ],
      [
        "wh",
        "ether"
      ],
      [
        "ate",
        "ly"
      ],
      [
        "di",
        "ent"
      ],
      [
        "can",
        "not"
      ],
      [
        "tr",
        "ies"
      ],
      [
        "ad",
        "versarial"
      ],
      [
        "ative",
        "ly"
      ],
      [
        "fe",
        "el"
      ],
      [
        "ag",
        "ree"
      ],
      [
        "19",
        "5"
      ],
      [
        "use",
        "ful"
      ],
      [
        "par",
        "se"
      ],
      [
        "abil",
        "ities"
      ],
      [
        "imp",
        "lic"
      ],
      [
        "represent",
        "ations"
      ],
      [
        "prov",
        "ide"
      ],
      [
        "ish",
        "ing"
      ],
      [
        "iz",
        "ed"
      ],
      [
        "GP",
        "Us"
      ],
      [
        "Ch",
        "ina"
      ],
      [
        "inter",
        "pre"
      ],
      [
        "exp",
        "lo"
      ],
      [
        "exp",
        "lain"
      ],
      [
        "ins",
        "p"
      ],
      [
        "bi",
        "as"
      ],
      [
        "possi",
        "b"
      ],
      [
        "conne",
        "ction"
      ],
      [
        "gro",
        "up"
      ],
      [
        "show",
        "ed"
      ],
      [
        "complex",
        "ity"
      ],
      [
        "play",
        "ing"
      ],
      [
        "rele",
        "ased"
      ],
      [
        "depend",
        "ent"
      ],
      [
        "buil",
        "t"
      ],
      [
        "defin",
        "ed"
      ],
      [
        "sa",
        "fe"
      ],
      [
        "sti",
        "t"
      ],
      [
        "mission",
        "s"
      ],
      [
        "optimis",
        "ation"
      ],
      [
        "parame",
        "ters"
      ],
      [
        "hy",
        "po"
      ],
      [
        "compe",
        "ti"
      ],
      [
        "eval",
        "u"
      ],
      [
        "contro",
        "l"
      ],
      [
        "oth",
        "ers"
      ],
      [
        "sho",
        "uld"
      ],
      [
        "import",
        "ant"
      ],
      [
        "contin",
        "u"
      ],
      [
        "Ano",
        "ther"
      ],
      [
        "GA",
        "N"
      ],
      [
        "diag",
        "no"
      ],
      [
        "Bayes",
        "ian"
      ],
      [
        "consci",
        "ous"
      ],
      [
        ".",
        "."
      ],
      [
        "A",
        "c"
      ],
      [
        "A",
        "d"
      ],
      [
        "A",
        "mer"
      ],
      [
        "C",
        "O"
      ],
      [
        "C",
        "NNs"
      ],
      [
        "E",
        "uro"
      ],
      [
        "H",
        "int"
      ],
      [
        "I",
        "f"
      ],
      [
        "M",
        "E"
      ],
      [
        "R",
        "us"
      ],
      [
        "b",
        "est"
      ],
      [
        "c",
        "ra"
      ],
      [
        "c",
        "ases"
      ],
      [
        "d",
        "r"
      ],
      [
        "d",
        "ra"
      ],
      [
        "d",
        "ig"
      ],
      [
        "f",
        "ree"
      ],
      [
        "i",
        "ly"
      ],
      [
        "i",
        "tion"
      ],
      [
        "i",
        "ble"
      ],
      [
        "l",
        "at"
      ],
      [
        "n",
        "or"
      ],
      [
        "o",
        "u"
      ],
      [
        "p",
        "la"
      ],
      [
        "r",
        "al"
      ],
      [
        "r",
        "ate"
      ],
      [
        "r",
        "ighted"
      ],
      [
        "t",
        "un"
      ],
      [
        "t",
        "able"
      ],
      [
        "u",
        "di"
      ],
      [
        "y",
        "ear"
      ],
      [
        "in",
        "cor"
      ],
      [
        "in",
        "divid"
      ],
      [
        "at",
        "a"
      ],
      [
        "on",
        "ic"
      ],
      [
        "on",
        "ce"
      ],
      [
        "an",
        "ced"
      ],
      [
        "re",
        "am"
      ],
      [
        "re",
        "current"
      ],
      [
        "re",
        "stric"
      ],
      [
        "en",
        "ab"
      ],
      [
        "en",
        "sive"
      ],
      [
        "es",
        "pread"
      ],
      [
        "is",
        "ing"
      ],
      [
        "co",
        "ll"
      ],
      [
        "pro",
        "te"
      ],
      [
        "st",
        "s"
      ],
      [
        "ne",
        "y"
      ],
      [
        "se",
        "en"
      ],
      [
        "un",
        "certain"
      ],
      [
        "con",
        "tr"
      ],
      [
        "il",
        "ity"
      ],
      [
        "ge",
        "t"
      ],
      [
        "ac",
        "cur"
      ],
      [
        "ex",
        "is"
      ],
      [
        "ter",
        "ing"
      ],
      [
        "cl",
        "es"
      ],
      [
        "di",
        "d"
      ],
      [
        "di",
        "rectly"
      ],
      [
        "tra",
        "ditional"
      ],
      [
        "ad",
        "dition"
      ],
      [
        "we",
        "ight"
      ],
      [
        "we",
        "ights"
      ],
      [
        "202",
        "1"
      ],
      [
        "gra",
        "dient"
      ],
      [
        "spe",
        "cial"
      ],
      [
        "ty",
        "pe"
      ],
      [
        "par",
        "t"
      ],
      [
        "do",
        "wn"
      ],
      [
        "mis",
        "information"
      ],
      [
        "ob",
        "tain"
      ],
      [
        "over",
        "fitting"
      ],
      [
        "bl",
        "ack"
      ],
      [
        "includ",
        "es"
      ],
      [
        "sol",
        "ving"
      ],
      [
        "cent",
        "res"
      ],
      [
        "ques",
        "tion"
      ],
      [
        "St",
        "able"
      ],
      [
        "incre",
        "ased"
      ],
      [
        "serv",
        "ices"
      ],
      [
        "exp",
        "ress"
      ],
      [
        "pot",
        "entially"
      ],
      [
        "198",
        "0s"
      ],
      [
        "auto",
        "mat"
      ],
      [
        "conne",
        "cted"
      ],
      [
        "level",
        "s"
      ],
      [
        "ran",
        "ge"
      ],
      [
        "redu",
        "ce"
      ],
      [
        "environment",
        "al"
      ],
      [
        "Ne",
        "ural"
      ],
      [
        "observ",
        "ed"
      ],
      [
        "Ge",
        "off"
      ],
      [
        "electr",
        "ic"
      ],
      [
        "effici",
        "ent"
      ],
      [
        "impact",
        "s"
      ],
      [
        "engine",
        "ering"
      ],
      [
        "ko",
        "v"
      ],
      [
        "meas",
        "ure"
      ],
      [
        "copy",
        "righted"
      ],
      [
        "amoun",
        "ts"
      ],
      [
        "vis",
        "ual"
      ],
      [
        "wide",
        "ly"
      ],
      [
        "read",
        "y"
      ],
      [
        "auth",
        "or"
      ],
      [
        "volution",
        "al"
      ],
      [
        "Mar",
        "kov"
      ],
      [
        "wid",
        "espread"
      ],
      [
        "mem",
        "ory"
      ],
      [
        "prof",
        "ess"
      ],
      [
        "relationship",
        "s"
      ],
      [
        "char",
        "acter"
      ],
      [
        "neg",
        "ative"
      ],
      [
        "sour",
        "ce"
      ],
      [
        "gene",
        "tic"
      ],
      [
        "Ima",
        "ge"
      ],
      [
        "academ",
        "ic"
      ],
      [
        "diction",
        "ary"
      ],
      [
        "Lear",
        "ning"
      ],
      [
        "insp",
        "ired"
      ],
      [
        "Amer",
        "ic"
      ],
      [
        "Euro",
        "pe"
      ],
      [
        "Hint",
        "on"
      ],
      [
        "individ",
        "ual"
      ],
      [
        "A",
        "S"
      ],
      [
        "C",
        "op"
      ],
      [
        "C",
        "NN"
      ],
      [
        "C",
        "om"
      ],
      [
        "D",
        "NN"
      ],
      [
        "D",
        "ata"
      ],
      [
        "E",
        "n"
      ],
      [
        "S",
        "ch"
      ],
      [
        "T",
        "r"
      ],
      [
        "b",
        "ad"
      ],
      [
        "c",
        "and"
      ],
      [
        "e",
        "con"
      ],
      [
        "e",
        "very"
      ],
      [
        "g",
        "in"
      ],
      [
        "g",
        "ate"
      ],
      [
        "g",
        "ges"
      ],
      [
        "i",
        "res"
      ],
      [
        "k",
        "ind"
      ],
      [
        "m",
        "or"
      ],
      [
        "m",
        "ight"
      ],
      [
        "p",
        "rac"
      ],
      [
        "p",
        "aren"
      ],
      [
        "r",
        "un"
      ],
      [
        "r",
        "ates"
      ],
      [
        "t",
        "en"
      ],
      [
        "u",
        "ch"
      ],
      [
        "u",
        "ations"
      ],
      [
        "y",
        "ing"
      ],
      [
        "er",
        "o"
      ],
      [
        "at",
        "s"
      ],
      [
        "an",
        "g"
      ],
      [
        "re",
        "ceiv"
      ],
      [
        "en",
        "h"
      ],
      [
        "al",
        "ready"
      ],
      [
        "le",
        "ast"
      ],
      [
        "as",
        "ter"
      ],
      [
        "as",
        "tic"
      ],
      [
        "it",
        "self"
      ],
      [
        "pro",
        "mp"
      ],
      [
        "ma",
        "xim"
      ],
      [
        "ma",
        "kes"
      ],
      [
        "ra",
        "re"
      ],
      [
        "ne",
        "cess"
      ],
      [
        "ne",
        "xt"
      ],
      [
        "su",
        "gges"
      ],
      [
        "lo",
        "cal"
      ],
      [
        "me",
        "an"
      ],
      [
        "con",
        "d"
      ],
      [
        "res",
        "our"
      ],
      [
        "ac",
        "ks"
      ],
      [
        "comp",
        "osi"
      ],
      [
        "dat",
        "ab"
      ],
      [
        "ex",
        "tra"
      ],
      [
        "ex",
        "plic"
      ],
      [
        "ha",
        "ving"
      ],
      [
        "In",
        "ter"
      ],
      [
        "man",
        "ip"
      ],
      [
        "ver",
        "se"
      ],
      [
        "gener",
        "ally"
      ],
      [
        "ad",
        "op"
      ],
      [
        "neur",
        "on"
      ],
      [
        "dis",
        "e"
      ],
      [
        "ho",
        "wever"
      ],
      [
        "cre",
        "ating"
      ],
      [
        "com",
        "ing"
      ],
      [
        "spe",
        "ak"
      ],
      [
        "mat",
        "ch"
      ],
      [
        "fo",
        "cus"
      ],
      [
        "201",
        "2"
      ],
      [
        "201",
        "0s"
      ],
      [
        "low",
        "er"
      ],
      [
        "ev",
        "ol"
      ],
      [
        "comm",
        "er"
      ],
      [
        "comm",
        "un"
      ],
      [
        "min",
        "im"
      ],
      [
        "but",
        "ed"
      ],
      [
        "some",
        "times"
      ],
      [
        "field",
        "s"
      ],
      [
        "fa",
        "il"
      ],
      [
        "mar",
        "k"
      ],
      [
        "like",
        "ly"
      ],
      [
        "under",
        "lying"
      ],
      [
        "new",
        "s"
      ],
      [
        "serv",
        "ice"
      ],
      [
        "ass",
        "ign"
      ],
      [
        "exper",
        "ts"
      ],
      [
        "mathemat",
        "ics"
      ],
      [
        "ens",
        "or"
      ],
      [
        "perform",
        "ing"
      ],
      [
        "real",
        "istic"
      ],
      [
        "allow",
        "s"
      ],
      [
        "require",
        "d"
      ],
      [
        "sh",
        "ort"
      ],
      [
        "effe",
        "cts"
      ],
      [
        "experi",
        "ence"
      ],
      [
        "sing",
        "le"
      ],
      [
        "redu",
        "ction"
      ],
      [
        "col",
        "lection"
      ],
      [
        "statistic",
        "s"
      ],
      [
        "clo",
        "ud"
      ],
      [
        "sequ",
        "ence"
      ],
      [
        "issu",
        "es"
      ],
      [
        "provid",
        "es"
      ],
      [
        "valu",
        "es"
      ],
      [
        "integr",
        "ated"
      ],
      [
        "govern",
        "ment"
      ],
      [
        "attemp",
        "t"
      ],
      [
        "recommend",
        "ations"
      ],
      [
        "2020",
        "s"
      ],
      [
        "percep",
        "tr"
      ],
      [
        "improv",
        "ed"
      ],
      [
        "optim",
        "ization"
      ],
      [
        "Comp",
        "ut"
      ],
      [
        "CA",
        "P"
      ],
      [
        "describ",
        "ed"
      ],
      [
        "demonstr",
        "ated"
      ],
      [
        "frame",
        "work"
      ],
      [
        "gam",
        "es"
      ],
      [
        "tre",
        "es"
      ],
      [
        "glob",
        "al"
      ],
      [
        "classifi",
        "er"
      ],
      [
        "origin",
        "al"
      ],
      [
        "dy",
        "nam"
      ],
      [
        "embed",
        "ding"
      ],
      [
        "ref",
        "ers"
      ],
      [
        "sump",
        "tion"
      ],
      [
        "cate",
        "gor"
      ],
      [
        "stit",
        "ute"
      ],
      [
        "Ac",
        "cording"
      ],
      [
        "year",
        "s"
      ],
      [
        "Geoff",
        "rey"
      ],
      [
        "Tr",
        "ans"
      ],
      [
        "cand",
        "idat"
      ],
      [
        "explic",
        "it"
      ],
      [
        "A",
        "G"
      ],
      [
        "A",
        "p"
      ],
      [
        "A",
        "le"
      ],
      [
        "A",
        "ma"
      ],
      [
        "F",
        "a"
      ],
      [
        "H",
        "e"
      ],
      [
        "I",
        "D"
      ],
      [
        "M",
        "id"
      ],
      [
        "M",
        "ay"
      ],
      [
        "P",
        "ar"
      ],
      [
        "P",
        "Us"
      ],
      [
        "S",
        "V"
      ],
      [
        "T",
        "o"
      ],
      [
        "W",
        "e"
      ],
      [
        "b",
        "an"
      ],
      [
        "b",
        "ur"
      ],
      [
        "d",
        "a"
      ],
      [
        "e",
        "mo"
      ],
      [
        "e",
        "missions"
      ],
      [
        "f",
        "ar"
      ],
      [
        "f",
        "ol"
      ],
      [
        "f",
        "ies"
      ],
      [
        "f",
        "old"
      ],
      [
        "h",
        "is"
      ],
      [
        "j",
        "ust"
      ],
      [
        "k",
        "y"
      ],
      [
        "l",
        "ater"
      ],
      [
        "m",
        "iti"
      ],
      [
        "m",
        "ust"
      ],
      [
        "m",
        "uch"
      ],
      [
        "p",
        "i"
      ],
      [
        "r",
        "ic"
      ],
      [
        "s",
        "c"
      ],
      [
        "s",
        "es"
      ],
      [
        "s",
        "enti"
      ],
      [
        "t",
        "ro"
      ],
      [
        "t",
        "ual"
      ],
      [
        "u",
        "til"
      ],
      [
        "z",
        "on"
      ],
      [
        "in",
        "iti"
      ],
      [
        "in",
        "ference"
      ],
      [
        "th",
        "s"
      ],
      [
        "th",
        "in"
      ],
      [
        "er",
        "arch"
      ],
      [
        "at",
        "ch"
      ],
      [
        "an",
        "cial"
      ],
      [
        "re",
        "tr"
      ],
      [
        "en",
        "si"
      ],
      [
        "ti",
        "ves"
      ],
      [
        "ch",
        "e"
      ],
      [
        "us",
        "and"
      ],
      [
        "pro",
        "jects"
      ],
      [
        "st",
        "ates"
      ],
      [
        "be",
        "comes"
      ],
      [
        "ma",
        "p"
      ],
      [
        "ra",
        "ce"
      ],
      [
        "mo",
        "der"
      ],
      [
        "learn",
        "s"
      ],
      [
        "ith",
        "er"
      ],
      [
        "con",
        "s"
      ],
      [
        "con",
        "ven"
      ],
      [
        "ab",
        "l"
      ],
      [
        "ac",
        "cess"
      ],
      [
        "ac",
        "cording"
      ],
      [
        "20",
        "19"
      ],
      [
        "si",
        "an"
      ],
      [
        "si",
        "ble"
      ],
      [
        "comp",
        "ared"
      ],
      [
        "ex",
        "pe"
      ],
      [
        "ex",
        "act"
      ],
      [
        "wh",
        "ite"
      ],
      [
        "la",
        "p"
      ],
      [
        "la",
        "w"
      ],
      [
        "gener",
        "ating"
      ],
      [
        "qu",
        "anti"
      ],
      [
        "li",
        "er"
      ],
      [
        "pre",
        "fer"
      ],
      [
        "ke",
        "y"
      ],
      [
        "dis",
        "crimin"
      ],
      [
        "ho",
        "p"
      ],
      [
        "202",
        "6"
      ],
      [
        "gra",
        "mmar"
      ],
      [
        "bo",
        "om"
      ],
      [
        "spe",
        "ed"
      ],
      [
        "ri",
        "x"
      ],
      [
        "io",
        "s"
      ],
      [
        "mb",
        "ers"
      ],
      [
        "do",
        "min"
      ],
      [
        "201",
        "8"
      ],
      [
        "cogni",
        "tive"
      ],
      [
        "ob",
        "jects"
      ],
      [
        "classi",
        "fy"
      ],
      [
        "est",
        "abl"
      ],
      [
        "algorithm",
        "ic"
      ],
      [
        "fa",
        "kes"
      ],
      [
        "nu",
        "mer"
      ],
      [
        "pa",
        "per"
      ],
      [
        "tho",
        "usand"
      ],
      [
        "cri",
        "tic"
      ],
      [
        "ass",
        "ist"
      ],
      [
        "sci",
        "enti"
      ],
      [
        "resul",
        "t"
      ],
      [
        "comple",
        "te"
      ],
      [
        "cap",
        "abilities"
      ],
      [
        "struct",
        "ures"
      ],
      [
        "fact",
        "or"
      ],
      [
        "tiv",
        "ity"
      ],
      [
        "effe",
        "ct"
      ],
      [
        "experi",
        "ments"
      ],
      [
        "eth",
        "ics"
      ],
      [
        "pri",
        "or"
      ],
      [
        "there",
        "by"
      ],
      [
        "fra",
        "ud"
      ],
      [
        "ilo",
        "t"
      ],
      [
        "att",
        "en"
      ],
      [
        "significant",
        "ly"
      ],
      [
        "robo",
        "t"
      ],
      [
        "robo",
        "ts"
      ],
      [
        "electr",
        "onic"
      ],
      [
        "Se",
        "arch"
      ],
      [
        "effici",
        "ency"
      ],
      [
        "buil",
        "d"
      ],
      [
        "sit",
        "uations"
      ],
      [
        "valu",
        "e"
      ],
      [
        "fin",
        "ancial"
      ],
      [
        "achie",
        "ved"
      ],
      [
        "comb",
        "in"
      ],
      [
        "hi",
        "erarch"
      ],
      [
        "percep",
        "tion"
      ],
      [
        "vo",
        "ice"
      ],
      [
        "err",
        "or"
      ],
      [
        "associ",
        "ated"
      ],
      [
        "transl",
        "ation"
      ],
      [
        "activ",
        "ation"
      ],
      [
        "job",
        "s"
      ],
      [
        "theore",
        "tical"
      ],
      [
        "concep",
        "ts"
      ],
      [
        "datase",
        "t"
      ],
      [
        "marke",
        "t"
      ],
      [
        "surve",
        "y"
      ],
      [
        "writ",
        "ing"
      ],
      [
        "har",
        "m"
      ],
      [
        "proper",
        "ties"
      ],
      [
        "suf",
        "fici"
      ],
      [
        "label",
        "s"
      ],
      [
        "sent",
        "ences"
      ],
      [
        "chatbo",
        "ts"
      ],
      [
        "dev",
        "ices"
      ],
      [
        "jour",
        "ney"
      ],
      [
        "compon",
        "ent"
      ],
      [
        "dr",
        "ug"
      ],
      [
        "accur",
        "ate"
      ],
      [
        "electric",
        "ity"
      ],
      [
        "mean",
        "ing"
      ],
      [
        "commer",
        "cial"
      ],
      [
        "Ale",
        "x"
      ],
      [
        "Ama",
        "zon"
      ],
      [
        "Mid",
        "journey"
      ],
      [
        "retr",
        "ie"
      ],
      [
        "1",
        "6"
      ],
      [
        "7",
        "0"
      ],
      [
        "A",
        "ct"
      ],
      [
        "A",
        "NNs"
      ],
      [
        "B",
        "e"
      ],
      [
        "E",
        "ach"
      ],
      [
        "I",
        "T"
      ],
      [
        "J",
        "o"
      ],
      [
        "M",
        "a"
      ],
      [
        "M",
        "od"
      ],
      [
        "M",
        "IT"
      ],
      [
        "S",
        "ince"
      ],
      [
        "T",
        "ech"
      ],
      [
        "b",
        "on"
      ],
      [
        "b",
        "re"
      ],
      [
        "b",
        "od"
      ],
      [
        "c",
        "ase"
      ],
      [
        "d",
        "one"
      ],
      [
        "e",
        "li"
      ],
      [
        "f",
        "requ"
      ],
      [
        "g",
        "ed"
      ],
      [
        "h",
        "n"
      ],
      [
        "h",
        "er"
      ],
      [
        "i",
        "er"
      ],
      [
        "i",
        "od"
      ],
      [
        "j",
        "e"
      ],
      [
        "k",
        "er"
      ],
      [
        "l",
        "ar"
      ],
      [
        "m",
        "ial"
      ],
      [
        "o",
        "c"
      ],
      [
        "p",
        "ic"
      ],
      [
        "p",
        "sy"
      ],
      [
        "p",
        "ho"
      ],
      [
        "r",
        "y"
      ],
      [
        "t",
        "z"
      ],
      [
        "t",
        "ur"
      ],
      [
        "u",
        "m"
      ],
      [
        "v",
        "i"
      ],
      [
        "v",
        "in"
      ],
      [
        "v",
        "ant"
      ],
      [
        "y",
        "p"
      ],
      [
        "y",
        "le"
      ],
      [
        "y",
        "et"
      ],
      [
        "th",
        "us"
      ],
      [
        "th",
        "res"
      ],
      [
        "er",
        "n"
      ],
      [
        "an",
        "n"
      ],
      [
        "an",
        "om"
      ],
      [
        "re",
        "c"
      ],
      [
        "en",
        "e"
      ],
      [
        "ti",
        "t"
      ],
      [
        "le",
        "y"
      ],
      [
        "of",
        "fer"
      ],
      [
        "to",
        "ken"
      ],
      [
        "ro",
        "w"
      ],
      [
        "ch",
        "ed"
      ],
      [
        "ch",
        "astic"
      ],
      [
        "de",
        "term"
      ],
      [
        "it",
        "al"
      ],
      [
        "it",
        "ate"
      ],
      [
        "ent",
        "er"
      ],
      [
        "pro",
        "g"
      ],
      [
        "st",
        "ated"
      ],
      [
        "st",
        "udi"
      ],
      [
        "st",
        "yle"
      ],
      [
        "ly",
        "no"
      ],
      [
        "ma",
        "ins"
      ],
      [
        "ra",
        "w"
      ],
      [
        "ne",
        "l"
      ],
      [
        "ne",
        "uro"
      ],
      [
        "se",
        "par"
      ],
      [
        "se",
        "cond"
      ],
      [
        "un",
        "til"
      ],
      [
        "lo",
        "o"
      ],
      [
        "lo",
        "ss"
      ],
      [
        "con",
        "volutional"
      ],
      [
        "con",
        "sumption"
      ],
      [
        "are",
        "a"
      ],
      [
        "are",
        "as"
      ],
      [
        "ac",
        "qu"
      ],
      [
        "si",
        "de"
      ],
      [
        "comp",
        "any"
      ],
      [
        "ter",
        "min"
      ],
      [
        "per",
        "iod"
      ],
      [
        "In",
        "stitute"
      ],
      [
        "po",
        "int"
      ],
      [
        "po",
        "lyno"
      ],
      [
        "di",
        "a"
      ],
      [
        "la",
        "ws"
      ],
      [
        "gener",
        "ator"
      ],
      [
        "id",
        "ence"
      ],
      [
        "ad",
        "d"
      ],
      [
        "ad",
        "ap"
      ],
      [
        "ad",
        "ditional"
      ],
      [
        "li",
        "m"
      ],
      [
        "li",
        "mit"
      ],
      [
        "out",
        "comes"
      ],
      [
        "form",
        "al"
      ],
      [
        "fe",
        "ct"
      ],
      [
        "ag",
        "ing"
      ],
      [
        "ag",
        "reed"
      ],
      [
        "dis",
        "cus"
      ],
      [
        "dis",
        "play"
      ],
      [
        "ci",
        "es"
      ],
      [
        "cre",
        "d"
      ],
      [
        "gu",
        "id"
      ],
      [
        "bo",
        "x"
      ],
      [
        "arti",
        "cles"
      ],
      [
        "amp",
        "les"
      ],
      [
        "mat",
        "rix"
      ],
      [
        "log",
        "ies"
      ],
      [
        "act",
        "ors"
      ],
      [
        "ph",
        "one"
      ],
      [
        "do",
        "mains"
      ],
      [
        "develop",
        "ers"
      ],
      [
        "ob",
        "ject"
      ],
      [
        "imp",
        "os"
      ],
      [
        "predic",
        "ting"
      ],
      [
        "predic",
        "tive"
      ],
      [
        "recogni",
        "ze"
      ],
      [
        "min",
        "i"
      ],
      [
        "reg",
        "ard"
      ],
      [
        "reg",
        "ular"
      ],
      [
        "sol",
        "ution"
      ],
[...]
